#map = affine_map<(d0, d1) -> (d0, d1)>
#map1 = affine_map<(d0, d1) -> (d1, d0)>
#map2 = affine_map<(d0, d1, d2) -> (0, d1, d2)>
#map3 = affine_map<(d0, d1, d2) -> (d0, d1, d2)>
#map4 = affine_map<(d0, d1, d2) -> (d1, d2)>
#map5 = affine_map<(d0, d1, d2) -> (d2)>
#map6 = affine_map<(d0, d1, d2, d3) -> (d0, d1, d2, d3)>
#map7 = affine_map<(d0, d1, d2, d3) -> (d0, d2, d1, d3)>
#map8 = affine_map<(d0, d1, d2, d3) -> (d0, d1, d3, d2)>
#map9 = affine_map<(d0, d1, d2, d3) -> (0, d1, d2, d3)>
#map10 = affine_map<(d0, d1, d2, d3) -> (d0, d1, d2, 0)>
#map11 = affine_map<(d0, d1, d2, d3) -> (0, d1, d2, 0)>
module attributes {torch.debug_module_name = "SelfAttention"} {
  ml_program.global private mutable @global_seed(dense<0> : tensor<i64>) : tensor<i64>
  func.func @forward(%arg0: tensor<1x16x64xf32>) -> tensor<1x16x64xf32> {
    %cst = arith.constant dense<[-0.0592440218, 0.0677287578, 0.0140776783, 0.119803399, 0.0582405031, -0.0197271854, 0.0793779045, -0.0123749673, 0.114828542, 0.0850726217, 0.0223974884, 0.0638002306, -0.046845153, 0.0481066257, 0.0245303363, -0.0739335865, 0.0709359497, 9.904900e-02, 0.0129159093, 0.0849004685, -0.0766940266, 0.0692202449, -0.0465632677, 0.0645854473, 0.0170845687, 0.112455547, 0.0115672052, -0.10500215, 0.0126000047, -0.010171026, 0.029043898, -0.0167157203, -0.00876820087, -0.014944464, -0.0200500339, 0.0770174414, 0.0440027565, 0.0808288753, 0.0260448754, -0.072539404, -0.00102043152, 0.107195482, 0.032711193, -0.0272418261, -0.0389307886, -0.0268299431, 0.0874558389, 0.0521914512, 0.0455126315, -0.0879725665, -2.688700e-02, 0.110333756, -0.00700117647, -0.0790984928, 5.648820e-02, 0.112593204, 0.101532832, -0.0229030401, 0.0900571942, -4.681520e-02, 0.0311546624, -0.0747267901, 0.122205019, 0.0365872085]> : tensor<64xf32>
    %cst_0 = arith.constant dense<"0x683A8DBD9005ECBD307491BD76E98B3D0221853D401E38BD783E143D1E02CD3DD08593BCD85B7F3D503D48BD38AFCB3DCC3B6FBD68FD8CBDBED2FFBD98C1CABD004F56BD32B3FD3D00A7AA3D8492863DA8F288BCBA95CB3D50E8C4BC4005713B0292D5BDA425DABD902464BDFC3F77BD545B273D72DFF93D461AC13D1AB7A33DDA85853D509B6EBD087080BC782013BDB0A5AB3CFA32B3BDA017133CE09F613C409EE5BC7E47A2BD20973B3DF267E83D081CC3BC16FDE8BDFCAFBF3DC84CF0BCFE1BF0BDC87DD53DE806B1BC2C51FCBD9A12B63D108A1E3D904297BD54CCEFBD6018B03C884E0B3D803E40BCC821D23CD4EACE3D544379BD0418273DC61F953DD0A35E3CDC480C3DC0FC873CA86AB43D0073243B60DFC4BBEC24623D7A899EBD20A2D63B200822BC6874CE3C2C4399BD8EDCFD3DF002A03C20C97ABD4084E4BD3408893D0040803B2019883B6026023D488B35BD0C7DFE3D8E33EDBD0C1BC83DE0EFC73D1065FD3CA82A8A3DA888BA3C10562DBDE028C8BC94911D3D848F4A3D6A24C2BD180A00BDB494DFBD6CE2083DB4B675BDEC0EA8BD42CDBB3D749A77BDE0B5DEBCF0FF853C4CAA68BDE045FF3B9065A1BCEE58CABD880F85BDA0702C3DE0EED43CC0E9923D54E5F5BD2241E03D60241D3D60DC96BDE05DED3CD0AECFBD407FD53CA0D3B8BD10105B3CC4D030BDE8758DBDF279D1BDA41FA5BDB0EDF3BD404872BB202E843DC899A13C0AEBE83D4EF2B43D70A319BD10DC8CBC50CA943C6CAE30BD6CC38FBD801B84BA8A3599BDBA2ED5BD8EE4A0BDEC7CDBBDAE07A93DECA73C3DC08BD3BBD89C293DA8D069BD5EEA9DBDBCA7C3BD5427653DDC19FEBD8C4BF0BD50976DBC2815E1BD88DB513DE01EA0BC88F08A3D783F8E3D2CDABE3D18BBCF3C4C314CBD2067B73C564BF1BD2044DCBCE46ECCBD3464013DC0A9523B5614C83D1CBCF7BD8C8E603D00CC3C3B40B51BBB12AB8FBD10BC64BDBA1AA7BD786FA43D2C5AF0BD503068BDE89880BCC0D23EBCA0BB88BC3EC79E3DCEA39FBDD07FE33DCC42343D524A993DF075923CA08C673D00BFDF3BE43816BD7888B2BDB82226BDD6939F3DC83C1CBDCCF1BABD045E4EBDAC66A1BDB023BABDFCE33C3D0ED7AC3DC8D61CBDF8F567BDEEC1EBBDA0E78DBC2028113DD838843DECBA0DBDF0E209BD0C04DBBD1AC5D43D368CEE3DB8E092BD50C3FE3C526092BD9E0DFCBDA0E1BF3DA0AE4DBDF8E9EEBC70AAF6BC284376BD4E5DBCBD04AA713DE80253BDFAE9F0BDCE0299BD2219B23D8812F0BDFC5F7FBD089217BDBEECB83D3C04B33D5C107D3D848BF63D5099473DE0D62DBC9C4C35BD84293B3D34DEC8BD8446E13DCE4BF13D3040603C48D5183DB8C6103D7CD8A73DCAFC8B3DA06B113D4404D8BDA0980FBD90A7873D24DC663D285987BC481A84BDE0ADB1BB6A53F7BD103BBDBCEEF5BBBD685489BD4C6D9DBD30DE38BD98E5C23C3664ECBD4069783D4C66DEBDF43DF73D627AB3BDD8AA1D3D403B763CBA20CEBDD21789BDCED5FB3D9CEC9BBD8A548EBD98BEEC3C30CCCF3CAC769F3DF63FCCBD8E81A53D1046F13CC0E4D7BD127DBF3DA27E90BDB2C996BD8480F7BD4E70EBBD380D16BD369CE63D6076F83C3E07CEBD58EBE2BD6C1F6F3DA03943BDC096FABB7481FB3DA09A9A3D18FA2ABD2046BFBB1C3B7D3D4A92D13DA00DDFBB762D823D6CA7D7BD604141BCDC7E8CBD7225953DDA74ED3DF0C37C3DC653CCBD007B54BB202CEA3C86DF813DD469DDBDC069BA3C60C39F3BA6B19B3D0212853DD4E693BDD0695FBC1234BABD9A37A3BD6CFF9F3DD87BA4BDB0950E3D70B459BC582599BC7AAEC0BD2C15A8BD5EFAEABDBC6043BDBC6156BD4AE8D53D3A43C73D80A1EBBD86629ABD202EB1BCEA07E7BDF0F614BCAABAC5BDA0DE5BBCB898B83C5AF798BDA6D5863DA859D43D3E14903D7842DFBD0605DE3D5C1834BD3E649CBD60735A3DB89B7A3D648D8BBD346CC93D408C95BCC033B33BA800C9BC8037193C1CAFDEBD62ACA43D4C7609BD24D52ABD80A598BC6495B6BDF439323DE8CACBBCC030173DB0B2BF3CB862E9BD4623B23D80AEC93AC804C63D16BE8E3DD0F2D13CA065253C3070CABC68F9B8BD4AEFED3D48306BBDF89FA03D988195BC6008A1BC54B1C73D0C9949BDDA19AC3D6E7FFE3D20A9413D5475C1BD54CF41BD58D2FCBC089C66BD205EA4BDC0955B3BA8F5E13C22ACE33D7A86F03DFE88EFBD7C98FD3D7CF0D03DCC9656BD305771BDE23DD13D648566BD749887BD8E0ED6BD300C863D8CAE5E3D18D0C23C6E12CD3D709050BCCC5B69BD5884503D0C528C3D2857053DA0C7E43BA889D3BC880BAA3C58C801BD94D7A0BD08E089BCE4BEB03D247AE23D8EFFF23D443DFFBDBA44E8BDE8DB05BD0EF9F13DB8D4923C20AF33BDE2D0C7BD2E6DD1BD40C7B7BD78F3E4BDA8A0A83D006DB53CC0BE72BCC4D2DCBDF0F776BD10141A3C4815A7BCB2C6963D5097783D68EB40BDB0CEBABCEA2EC33D0089AFBBA0B5953B887418BD48BE963DACE5153DD02B613D603D0D3CC6CFA63D5235EF3D48573CBD200116BD409C1A3CC657D2BD28905ABD5C5067BD84F1403D907E57BC34AABBBD80BC85BB608AA1BCE82F03BD26D0DABD548726BDD8DD913D002ED03CBEABA03D700071BC2E5ED53D08CB0C3D8C97003D60E983BB80C5503C7CA3123DB4839CBDAC79493D1E11C0BD8A659ABDA020A93D308311BDA43593BDB00CCBBDE8CAFA3D005E32BC4012BF3C8C5F92BDE8F386BD6217A13D701B763C30F4DCBC809E9CBA08F59B3D402D693B58F2503DC8825F3D2868913D78C824BD3E52A7BD604ADE3BD0DADA3D8680F8BD8203EC3D906F8CBCA6B9BDBDD0182D3DD23D903D9E0FEFBD4AB980BD4099AC3B120281BD74BA6EBD0827D03D94388B3DF6FFD03D109885BDA6D2C6BDCA43E3BD544DF43D7E2A893DF43B41BD70CAE43D9420223DCC66E83D28C058BDF01F90BCF8CBF43CDE66A4BDF43C343DC839423D30470A3C00E57CBBBAC0D13D004DA7BA7CF3F83D808731BB8489743D2090A8BDE8DDC23D6C8FEE3DA6FCAEBDF0D861BCDC27183DA87D97BCA07FE53B7647E4BDA06E8F3DA48B413D541A513D98E365BDF455B1BD78C1F3BD189E823D782094BDC4260E3DDA23CFBD00E9843D8E3495BDE0FF993BAC6874BD24C7CC3D8C84B0BD9246F23DD00052BCB4B2C63D2AD7CFBD2CB3E2BD80B8DABB20ACF53C08C0C83CE0F470BDD066A6BCACE2D83D946B23BD36C4D2BDC6F3B23D0E40B6BD2066C5BDE0F147BDBAF5ADBD3457643D9687BEBDF49E533D2210F0BD6EB0913D946DBF3DBE52D0BD80AA9F3DA844D2BC60F37BBC54B27FBDD24091BDD42045BD081667BD54D6E9BD8884F43DB8D9A63CF028803CAE3FC93DDC4475BD5EF1B7BDDC8420BDECF9343DE4441F3D2CD4BA3DDC337DBD344B50BDE00262BCC8BCE6BC2641D93D84C5F23D3AE4C93D00822A3CF8E2F7BCD036B93D62ADF83D80291E3D1439703DB4B1B23D84708ABD7639CA3D906ACFBDA8DAF9BDE4C19ABDD8B2D23DE08EF03D747DBDBDC8701E3DB4B32C3D8CB7E13D68C19F3C3CE167BD9021B5BDF434253DC8D6FA3DE8BF2ABD20838EBC4ED1E43D801139BC2EB2F83D003AA7BB002721BC00F6D6BDC284B1BD0A15BABD02ADA4BD1CA4293D906C6FBC2ADB98BDF834E1BC6C7F863DA8B2BB3CF0CECA3DDCEE9A3DA8A3F93DCAC1D2BDD8BDE73CD82D6CBD5079D33CFE74D7BDE08711BC403E213DB8D3803C32E0CCBD6C1B19BDC85EEA3DD0E82D3CA69ACBBD60D1A33CE0A1B1BD0CA17C3DEE11C83DBC10E83D506B5EBD3650ECBDB48B8F3D2043F0BC464DA23D00356E3DB2BC923DECE0C2BDF08C3B3D0007B1BAA68BBEBD8AEAE2BD24522E3D38EFCF3CB8FFC13D56539DBD106321BD44317CBDA004E2BD0481A8BDE64C963D48620B3D1CAF80BDB878E1BCC44F18BD88DEF7BC8847C3BC003BC13C0866EFBC50D9403CD0B702BC0046D0B9FC4D8D3D0456C8BD88EBA4BD44BD65BD40D0033D80387A3DC617EFBD50C6BC3DAA72D23D000FA53A60F945BDC48B3FBD5006DD3C100B913D62A1C93D502F9CBC08D31B3D5C7B0CBD18D896BC5EE49E3D12E5993DC00F9F3C0421E63D209AF13C601E4CBDD0D9D9BC7E2BA53D505847BC607ABDBBB88AADBD809FA83B301D8A3DEE8FC83D70BC8C3C74604BBDC0DD3EBBF4BEF2BD18A4DDBD70C1253D6844943CD41FCFBD847F693DD80B98BD8820C2BCB84FB33CDCED5EBD80FFAF3BE0BFA33BA03D2ABD9AEAB23DB04FF43DA08DDB3BA41CBEBD60B9C0BBF099EB3DF80A893C1C70F5BD94E53B3D480FD23D426DA83D5621F93D70C8E9BD6464123D7AA4F8BD9C4A9F3DC862D53D1023253D7858433D789198BDE83B80BCEC8719BD9CF8C0BD282C8C3C548E6CBD04706D3DE0C428BCACD7FC3DD02BEDBCB2BFF2BD4248A83D9CEFCBBDDC7506BD6A409E3D78A8E93DCC4D933DEA029D3DD07D7C3DA0D9953D0C5D2EBDD8DEA53D006B863A4A42ADBD087CACBC905CB0BD9296CFBDB098AABCDC24343D06E1923D70181BBD40227CBBE80088BC20DE15BC80A3C7BA546685BDC87E9C3C366ABBBDA8DCD0BD085A893DE252DFBDA858BF3C1E3587BD007948BDE809D63CE01E253C7072B4BCD0C2F53DE0EFA1BC64218E3D5A7696BDD0D8DE3DEE0BA3BDA014EABDB6769C3D445B9CBDC87D02BD700034BD40A96D3D7007D7BCE8923BBD20AB0CBCD812773DB65BB7BDBCAC21BD4CEF49BD20338ABCCCB5983D22F7D7BD489C703D28028B3C443E4D3D006D85BB80AC91BA40C584BBB889B4BD8EE3EFBD6059D53BC0B072BB54A5783DDA7EF43DF803973DE49B0EBD04DF6E3DB8B221BDE689AC3DC064BC3CA8E25A3D246BB03D0CDDD5BD9A48D9BD94983CBD8A39D13D800E5EBC3C3E3C3D405FBC3CB8FEA63DB07B01BCE0DC2CBC6ABDD0BD40F2BC3CFC3FFCBD309A23BC9C3DC3BD342407BD1232C7BDA0AE033DD0963D3D007B58BDF0A55DBC0844C8BC704214BC3415CE3D50B0D7BC861EBDBD9842F2BD2097513C20CAE6BDC600AF3D6851763D4A79AD3DCEA1F2BDF05EEDBC346847BD4C2E8C3DE209B5BD888DF23D584DE23C881B843CCE279E3DCA79C0BD30A78A3CC0CFC9BC7494FBBD5045753C3CA2313D844F993D0E028F3D800B4CBDC4CE1ABD1861CCBCB4DEE83D807A92BB90EF863D008B0C3D00BD053CB290873DF08EB43DDEFB95BD164A95BDD4A8FEBD9CE1433D9651DE3D8240DE3D08C7EABC60261DBC4432823DCEDFE8BD10FB49BCE07296BC783E42BD40544ABB6018E7BB72988C3D5AAA983DC46E3CBD00804D390A3DEABDB03B603DD26D8BBDC8D6703D5061E4BCF4E1953DB68DE3BD3C4B03BDD6968DBD8051EF3C14D93C3D8A1B80BDC0C798BB7486E93DC07B8D3BC26296BDB077F9BDD4B77DBDFE0CDA3D0041C33D78450C3D4456B2BD0C44EC3DF8E7DABCE8B0BCBC70056DBC546F5CBD2CC70D3D16EAD1BD30DD2B3D22BDEE3D28E81FBD1E2FBABDC0E5603D4035EABC30BA26BC7880B6BCA038BBBC201DBDBCDC9622BDB085023C64B1D8BDB01AA7BD706EF43D32FEE3BD5AD6D2BD80B4843A2211D9BDE821EC3D26ACF13D9434443DE05FC73C94785BBDE044D8BC402B15BB5CF4AA3DDC5FC53D6CD11E3D084CE23D9482AE3D386CBFBCAC3D523D60E6C1BBF48FC03D805B53BB60E28DBD1EABDF3D604837BC687C49BD24EFD23D685804BDB8D5653DF442FDBD989BDC3D52578DBD20E0CE3D80C9BD3C80E2CCBD4C573EBDA024A53BCC1804BDD044E23D645FFA3DDC868EBD9C62E53DB0C56EBDC0DB523CAC7D163DB0E1963C80C591BAA0E696BB70E17FBC14706ABD743F6FBD70ECFABD50E5C33D004CD7BA02629EBD9836AABD1C820BBD40FA57BCBCFD9CBD7A7BB23DD45DE5BDA869033DBC9F82BD000D493B003C18BB2C8AB93D580B8BBC30AA1F3C08877CBDB6519C3D001334BBF26EDCBDD021A33C543DECBD5AD5F23DC07DB03B346B0FBDA8C364BDBAC8983D88440B3D525DA8BD9004383CAC1F703DC09FBBBD52C38E3DEC74A2BD98D4C83C7830F6BD48F7D0BC504595BC6025293DDC27C0BDD0C411BD7AC9A4BDA065663D50D126BD88EE533DCA2D8DBDC032383B40EDCC3CA2F4B73D58DD92BDF62DE03DB81A643D0C8DF13D6E36E23D70A392BD802F3B3DDA08833D00C0503BB00D1EBC10F6423D4832AF3D6C6270BD6853C7BC5651CFBD00E490BD1EF9CA3DD4339B3DEC6F1B3D0027C8BA50E195BDAE3A803D1046F23CE6FAD0BDE08A683C94C6273DC0293F3BD0EA043C202E923C8AB59EBD7CF4533DD04E543C566CCC3D40718ABDE873A4BC98401D3D68F3C53CFA34813D70B6DE3D28B913BD9CDC75BD80556DBD00C8DABC8ECCC0BDE008C13C5039C53D2459BB3D88C02E3D3CED2FBDD09EECBDBE84CD3D84949EBD5080BFBC145AFCBD289D843CA674BABDEEBCFA3DC00E97BD705959BC04E1DA3DECBDE63DC8C5B1BD8CAC76BDCC9469BD122B8BBDC4D850BD860FC43D70F6F6BDC810FDBC005B2E3AC8994B3D005F8DBAB87221BD709517BDA4A44ABD70422ABD08D48B3CCC74423D0085D8BB82FDD9BD621A803D40CD4FBBB415C1BD68DF6FBDE476D03D84B210BDD8452ABD56B4C1BDA4CD583D40F1D4BB485FBABCE8E7C23DD801433D807384BC025EF2BDA482593D88FF8ABCE013B2BD06CDD9BDF0AD253CF61C8EBD00E096BA22A1B7BD5861AB3C3ECCF8BDE005D4BB0470003D34365CBD7A12DD3D008874BCA03A873BB84C37BD6656943D8AE8CC3D1017673D8056F6BD141706BD48038E3C60722CBD74F67EBDEABAEB3DFECB87BD089E173DD80B6BBDF0067BBDD861D2BD4270F33DDCF434BD98EDDEBCCEE3D13D08D9CBBC50A5A9BCE0E0343D7ABFB7BD2E5088BDFE41B13D30A435BD80B6D0BBCA88903D8A81F93D9091E43C0C17A8BD50E7293CF0AA723D30B1743D200C3DBCE2EAA8BDD411DFBD10E073BCEE63A8BDCC91CBBD00C5A53DD24CA03D88E0EEBC082C4F3D4033BABC3CADAF3DE0CCF93D9C50B73D009D4F3A92D2813D48C9EBBC301CE83D780643BDD4B0873D60D1D33B54198ABD507031BD8CEDBF3D005E89BCC4772D3D38CA9D3CC05A70BCB0CD8FBC5252E9BD04AA0C3D1EFA863D1E90E0BD48AA823C70E1FD3CC6A6F6BDD06897BD70F43C3C8CA5ABBD60F6413D44F3E1BDAC0C20BDC676943D5C227A3DCC72503DCC9F5F3D204FA13C205CA03B7C9D373DF041B2BD2E12CABDF4A8B2BD50DBAFBC4483AEBD4466CB3D003ADEBB7CAFD8BD48014ABD5C1A113D40D9AA3B40B35B3DEE17F93D849271BDF02BF8BD985FB4BC5C73C73DF42D5B3D70C3EEBCD0C04CBDD0EE0EBDA8C8DD3D4050163D98415A3DE0A1FE3D50A98D3C2224A3BDA41F69BD68A3603D26FADBBD06D3C1BD8C974BBD444A5D3D4270E0BD4A95FC3DA029B3BC1C33793DF8C9CEBCB61DF23D54E6F8BD903232BCF4E9453D0AFCC63D14D6CE3D94EFD2BD1657E93DCC47AEBDB066533D807B88BCC8FDFB3C4A90DB3DEAC19EBDC0770D3B18B773BD84469CBDB8D1493DA053B93D9082313C96E9DCBDC6C79EBD58AB65BD6C68933D302C833D28D3A9BDF6CD8A3D00C013BC8E4FE8BD70E68BBD08B1C13D62B4EB3DE02E6BBD24DB513DD097F03DCC9721BDB412043D8C8C98BDE0E6243D3C7A6BBD2863B13CC8111F3DE646E73DE4F21A3DCE9A95BD200738BC6414DFBDB42F2E3D9260E33D203BFCBDE85A5B3D44F6513D0067B13CD215D83D6C887DBDD88D9BBDDCAD8FBD2042093D60D8A0BDD426203D104126BC702DF13D10A8A1BDF837D13CBC98B73D2408833DD04A8EBDC8C4F63D0073333DEAEDFD3D1608E63D388F31BD4253A73D0038683CA04A74BC70ACE03C80B1DE3A3EEE81BDBC4BF73D40BD1CBCEA5A8B3DD0F6DD3DC09CBDBCF42C253DD42CC3BD4CBD243D00F88AB9BC1825BD9696E4BD8EFBB53DE03D45BCA00CC3BD34DCD6BD00909DBA4EB089BD34EE6ABDE86F753D0C09763D30EDA53CEC083B3D6C900DBD20523CBD8E4BEE3D1894B1BCBE2D893D3C4C8CBD803BF43DF8B8E6BC465284BD8C83A23D20F681BB80AB68BD204BAF3B40DD0D3B7634D3BDBC6623BD0091D6BCDC0380BD00645EBB6A3ED3BD5AE6823D9846073D38FACCBDD03699BD007A71BDA4E6C5BDD6B9D73DC4D71C3D40392CBD4059EF3CB6CCABBD7A45A63D00CF433CFC949DBD408A433C986B843DE0E49BBD5027AD3C84F3513D7AF8943D60CED63C0808A1BCD4BBEA3DD885CEBC20959B3B2863F2BC48784C3DD81BA63C9889573D84C0913D9066ABBD549B1A3D10C9EC3C209AF8BC189FDABDAAECD23D5CCFFABD8EE6BE3D08253A3D0852E8BC382E8BBDE0B587BD4879A33DA85172BDB071643C782F733D14A2F53DB4806ABD2208D6BDBC7A52BDD4B776BDD81A603DE87BF2BD24967E3D8E48E63DB824B1BC7C4EB43DA887273D72AEF73D5C0B43BDA02148BD20291C3DF47655BD26FA82BD305EDFBD3AB19FBD20D6C33DECDAD4BD00AB3DBDC6EEA5BD600034BD24CEA9BDFC4E2FBDE29C963D3E4BBB3D88DD86BCB81B24BD245A553DCC32753D0C94F23DD4060EBDA0F6A73DEC93133DE81CA63C560DBE3D02FBAFBDB810FCBDBCDF223D0E1A98BDC0B2053D2865E73D4A1AAEBD24DD273D3C2E2B3D7067323C007058BBD8D7BD3C0028DA3C00F4A7B9C8C9C33CAED7DA3DA421F7BD90DA70BD40F61F3C40FDA4BDD84A98BD004A9B39A6788E3DDE12B3BD5444E43DE85CCCBC1C41FD3DA47F9DBDF697EEBD986CF2BD5E26E13D2851DBBDFA8F9ABD460FA13D7040DE3CCECFC9BDAE1CC0BD60BFEABD603753BC8CF9653D702F853C6025D9BB84AF4A3D5427443DD862903D3039EEBD2A5792BD3C7647BDCE7CF9BD40E07C3C487A923D703A603C98C66EBDF4D823BDD022EEBC0050EB3CC08628BCF807F13C8651D1BD84AB803D9270CD3DD015063D6C12153D0C75F83DE4B52CBDE0830D3C24DE0B3D3C156FBDC0AF5B3CC00AFE3CA477FC3D18B1413D4031C3BB38E0BFBD74E4523DD02C63BDF0DB3BBC2035553C80DACBBCD6B4863DC813E53D8CD4A2BDAE2B8BBDF67B82BD38A2B93D440C313DE8FFC1BCA8BE9BBDB048EEBC185AB93C389637BD900FDCBDC485303D68ABE0BCC8E8E53DDC682E3D487696BCF459EEBD3C5A603D9667EEBD88BF863CACA68A3D7C04273D2093B8BBA8B1F83C900FC2BD8620E6BD4C17853D7084C43C8885A0BD3224E8BD2CDBC8BD989123BDF48735BD84151DBDF601FD3D5A8FF3BD0E8BCDBD88CCCEBC004EAAB95EB8C1BD903B75BCC8B65E3D7E92C5BD1801F5BDBCC46ABD98A9B3BC40D8773CA8C7A0BC40511CBCA8D2E93CC05A1A3C606FD5BB7A9BFA3D20B1FFBCACDF78BD94A10B3DF402A8BD361DC1BD7008E73DDCEC6D3DB04D44BC8EF99F3D86749B3DFCEE9EBD08D0A1BD5200C73D4434653D00EB0C3C12FFFA3DA053E13BA89BE73D108BE7BCDCE0D4BD841564BD448F843D84A57BBD00FD29BB546AB7BDBE6FC1BD184B5F3D60CE2BBD04A01CBDA879D9BC56D1833D56AF823DF08B143CFCB9A9BDA87ACFBD0880B63D3625C5BD0073243D848EC2BD9814BA3D9C015E3DD8AEF3BCD4179BBD2C00F5BDE036CE3B16568A3D70AF1F3C809A71BBF0DDF3BD0C3F153DE0F7B0BCD0AABFBCC84A7B3DD25A9BBD7C41393D9EDBCABD403D87BD6EBFFD3D1A489A3DF45E21BD80FB76BC5409D1BDB4B0323DB0C58F3CB8569ABCF05402BC009BF03C92FEAB3DB055BCBCB8FD16BD74F357BD945AA1BD6233B0BD80E9A73CE8A6FF3CB0A5E7BDECA0123D161F95BD5A4ADA3DB456D3BD4859863C7C49663D027C833DC66B853D60F619BC8AC2B23DC28082BD4E89C33DF44648BDFCD6B5BD0A4DF2BD30DAE43C4A87E83DBC9283BD2E66F0BDB0A4D3BC78DAD7BD4602D73DC04C693B1C34913DE84DAA3C686BAF3D502AB43C38F6A1BDB80A743DE050CBBC14C1CFBDA4B35F3DF8A7D7BDF0EFEA3CECA248BDC0798BBC3E5E87BD60A6AE3BB67CCBBDA073AE3D9C6F233D4083A5BB4831D9BC68D845BDC052A33D8A2BF6BD4092A33B52A3A13DA41A2ABD802718BDC47AF13D30E7723C5817EABC04A3143D8056C13D40E8A5BDB4070CBD6C50A8BDD42B8D3D005C11B9A003F9BC00B6D1B9603EAA3D78599E3D72A088BD00710A3B3A41A5BD182691BD7A7AABBD6450B3BDBCAA733DC0C6903C88FB7C3D70605EBCB44BECBD6677AA3D9031CCBD80C3D93C2275F53D98C0B9BDEC9FB43DF4F7053DACF8BE3D582699BDB2BDD43DE4FD023D084EA8BC327AFCBD2E49A13D9A3CD4BDA0CF883C52CD89BD608992BB469D8FBD3467363D20952B3C4C6F473D8005123BFA908CBD6E70ED3DA0FC4F3CA2FDD83D9CA58FBD9809C73DEEBEE1BD803BA53C507CBABC7642DC3D1E78DDBDD0274FBD86E89ABD4E42D6BD764CF1BD2C38CBBD9C59073DC840603D9E61D83D18C8F63C002D0DBA8085A03CEE22B23DE4778E3DC67EFBBD746F3CBDE025E13B6483DE3D000086375469E43D2EF8A93D54F7EDBDA489DF3DEECEF2BD506934BD44715B3D9C6842BD7429C6BDB0F0A13C60A374BD208CC63BA87F583D2823F83C76C7D7BD7269E33D884A2FBD0040A0BA60399EBD0AF5843D90576C3D8062643B5C0F41BD14B948BDE0B50F3DDA28BE3DCC1E923D98B5FA3DBCCEC53D0C420DBDB047A33CFC59FEBD3633F23DB452D5BD9072563D50F1CDBD9A3CAEBDBE4DAF3D608A413D9E5FB73D92A2E13DAC6AE9BDA0389ABDF811133DDA14AEBDDA94CFBD70FB8A3D94DCD73DD8AA5D3DCE38B53D3C0274BD0082B0BA1E0F843DE08662BC7407AFBDD0ACA83C9C4AEC3DEC7785BD6E26B73D088CA03DA8AC28BD2AC59F3DC20BF43DC8C2C53C56D0F3BD60A0853CCE87C9BD0096F83A50E3483DF04AC93D003BB9BBE845143D50BB1C3DC4F1E63DD82093BDF677C6BD482CCCBDC043D83B48D761BD40DA80BC3AE8FDBDC431D9BD42C3ACBDB027BE3C8E8DD7BD1CE739BD5C23053DFCB2E23D2ADDAC3D3A4D843D880578BDCA0CA5BDDA2A913D3C1446BDD8F786BD40E9E9BD581FFC3DB8A100BDDC07B6BDE0AE9B3C6C374D3D64A9C3BD00F4DFBB9032C9BC603A95BC585CC9BC9CC74B3D0017BBBB6848BFBC88BE4B3DCA87FE3D2099A53C64BB793D08BFDF3CEEDDB03D6A8EBBBD905DE33D78F19F3D46CACD3D1291D13D4091053D46B295BD7C520F3D90735BBCC0FFEFBC76C0803DE0AC2ABCF2E7D53D1024703DD02E4E3C0C13333D3EF4C3BD0E8BC23DB05FEBBC807BB43DEAE9E73D74F5D9BD52E4ECBD8EEBA63D28C3893C80D0453CEC91A3BD08008DBCA02DED3B0C76EABD2C2B8D3D8454213D800D783B20C0A7BCEC9EE03D583940BDFE23A8BDD4D9F0BD6061973D3CE9F43D18B0ABBCA0DCB1BD328FCDBD60205E3C0090763DE666FB3DD6E693BD7E7E9C3DDA9AD1BD98E3563D88E0643D9897C3BC9662F93D6271DFBDCC3669BD5CE060BD204C16BC565FA13D6085243C9AF1F83D980A373DEEF58D3D9CBE953D60190B3DD67EF2BD6C1BE9BD2883C23DD08BE1BC50AFDB3C1A66E4BDA843E3BD20CB2DBC6878383D4078B53D9032EBBC80D5B0BD565ADEBDC87436BD18392DBD3C60933DD03DB8BD70674A3CC050423BB4D36C3D5A808CBD2C9B52BD6094183C1AC5B8BD80F4EF3B6086B03C70C76A3C12EDC33DB60E90BD60A965BD402A34BDFC73153DA6458E3D7E09FD3D76DBFBBD7422943DD0318EBDF0F8EBBDF49DD1BDA03832BC58BA74BDB67DEA3D4C08803DECF7D2BD8E0FDE3D28C399BD0044093AF805C5BC6090823DAC746EBD4CAD303DE019BFBD80341FBBBA12D2BDDCBEC93DD47E4EBDB809F33C0894713DB05FEC3C522A8B3D0ACEF93D1C77FA3D864FB23D80F62D3CB61685BD1E8093BDF446D73D080EAC3C80CF863D7273923D2494BFBD682D923C90CAB5BC50AF753C082CB63DB8B2AC3DC84EB53D442E93BD54F72DBDAE08E33D3C8701BDC04F59BB101B8BBC3012B13D5ADEA7BD5E97AEBDF87486BDF8B4E5BD84BB1E3DE607E53DD2C1F0BD9AAAC53D6C9592BDB822A9BDF6FC8F3DF05CB3BC0CD058BDE8C0EDBC244DD5BD5C59AEBDCC72393D4097D23B2021CA3CE431B43D4414C43D0E31F23D082FE43CBCDDE93DF00E26BDE8A4F1BDA0A53ABDD08A933D6E50BB3DECFFE5BD2CAC413DC42F68BDF03B14BD6EF7C4BD50C62CBD887B303D8C98A6BDE89B93BCAC7B46BD5808803D80A7B63CC43BA2BDB8225A3DFEADCB3DFA3BE03D6A8EFEBDE083A53C20AF633C3A50AD3D9A2A85BD6081B3BC684FD8BD809BB6BB140A10BDC0F29A3DD0B3F8BC5E15DF3DD8EC193DF00B46BC484FC03DF815B93C38FEA8BDC67DF63DCC576C3D1652843D883D67BD60B0B13B6C553FBD1CB1F6BDC8B75B3DDAD9BF3D56F58F3D644B3ABD625FE6BDCCC0E9BD5858E6BCD22FEA3D742656BD1658803DE607AABD4C11EEBD90A107BC72739A3DF4A594BD984C8ABC281DA33C3682833D56DBC7BD18F6E2BD0E66A2BD8C59813DA859C23D98C4E53C047B9A3D5828F9BDCCFABABD3664DB3DBC484D3D2062D0BBE41FE23D00089C3DB4B0423DD0A314BC7C689C3D18E5C1BD805AF8BB7ACAEDBDDCB36C3D6E94D5BD80FA4A3BECF7133D3850D23D7CA630BD30E17D3CF2DAF43D6C64D3BDCAEFBC3D3C0B0C3DC098AE3BC03CD6BC46B984BDD0A9CA3DD49E2DBD8CAA63BDC866973DBCE948BD209FAABB60086D3D869ABB3D0655CB3DEC2447BD308AC63CC8F603BDECDD893DF041B23D6AF283BD525CE6BD408E7E3BB0C6D13C10F8AABC5C41A1BDAC38DDBDF056E3BCD872D73D80DC2DBC405A48BDD0E19CBDD0B3313CF8FBD73C5850FCBCA427D83D4C6AABBDBA15D03DF235FB3D80F3193BCCF49F3DB052E5BC28F0CF3D38E428BD901BE1BC4CD2BFBDB86D89BC6AC4E83D00C8B7B8688133BD4C92893D72D9993D8021E2BAE48424BDD0E773BDFCF3CF3DFCEDAFBDAE9DE53DFC6D4F3D94207BBD0087003D363A8DBD284236BD40B62DBCF806C9BC3EC2E13D3C67DB3D20075D3C669BE63D94DCDA3D3EC4EC3D1092F8BCE4D419BD70F39FBD986A72BDC05BA4BB009C1E3AD8638B3D38E3C7BC287DF2BD90306CBD80CC773B6C8403BDB00859BD405548BB5C5765BDE894103D661EB63DB01D2E3CF0A937BC7CEA7EBDC6A2EFBD30006CBD0CF30B3DC034C43B3817D6BC787E89BDC8123A3DF84143BD800076BCF62E813D46C4F33D4E96FC3DF484C8BD08E2E03D542D9EBD409A4A3C88F199BC9C0826BDB028BDBD64FAFD3D14C80DBD2AC3A1BDA49C403DBAD6AC3D24AF41BD9C91C7BDE8CDE53CFC19103D70849FBC08BF943CD4403EBD40F15C3B3836643D482B4A3D1A73B13D7E00F53D78FCEF3C8A24EEBD483A723D106B6F3DACF9233D08434A3DF0FEBABDA88B22BD520CE13DC029FDBB1457B83D2061CABCD0C23E3D00040BB954EDA73D389F7ABD6498673D62E4EE3D423B893DC2D880BDC6FAE4BD0024133DB8B1953CA65DAC3D2085093CC43662BDA0C2F5BB809360BC047A7BBD20FAAF3B923E803DD296FC3D382F2B3D90AB363DB4F33D3D3A25C7BD5C07943D28F5F63D8042403BDA8CF0BDF61FFDBD8EC0ADBD780B20BDCACDF73D301DB1BD20410CBD78107DBDE80B79BDC019B43C44577DBDECD8733D307AB5BD081C6E3D8479D53DE02C1F3D58AA943DEAACAFBDC00100BDA0E88A3CCA7DC7BD6858A2BDE0AB96BDC08887BD806B903BDC4F343D720195BD48E506BD94C2E2BD7A2FE1BD321FC53D001E293A80144D3C608971BD8CC944BDD08B2C3DA8CD61BD3676F1BD700EC5BD14076D3DBEBA96BD4030A2BB70E9D83C08ECFA3C3654B9BD32DCB2BDBCABBC3D4C4F38BD7E1EF63DA0C1BCBCEC51633DC65BE93DC8CA54BDAC50633D86A6CCBDCE31BB3D88CFE6BC2A61C7BDA0F0993D80E27DBDD03C60BDB0BC73BC40969BBC00B6FCBDBCFB8FBD58C99BBC6063623C907A9F3C0CC4613DA0878DBDB8B4C6BC208A563C0C20E3BDD80FA83C001D73BB6AA4AEBDC83A1BBD84CB5DBD209FDD3BC055A8BB821CB93D3469293DAC36B63D5C7B233D8C6D7C3DA8F6C83C680A42BD226DBEBD8099ADBC6E61A63DA8C3793D34CA49BD8032813B4C4E4C3DF4FA65BD00A4F73BBCBF193DE037EE3B70520F3D2C8316BDDA4AF7BD727B87BD588FADBC9CA3363D324AD33D604FD4BD66F885BD6CC0F23D982DFE3C5AFCE73D90554C3CA269ADBD4C61B8BDFEEF8DBD6031283CC0DC72BD4A96B83D0EFCAE3D98AA883C90982DBDE0BA8BBC4E69CCBD34BD593D508CFDBC647E833D88588D3C525A99BDE849E03D404B4CBCF48529BDA0965A3C44FE57BD3851CA3C809CF63DF066BE3CCC9DE33DECC15CBDEC967DBD1CB2383D18EB613D94CCF0BDF63F863DE28FEABD18BEED3DD096ACBD403D383D7C790A3D0C1652BDA025963BE48F853D5C4221BD00F0CA3C126589BD8C3339BD6285923D2A39FD3DC677E63D581ECB3D303B25BDB0BC063C70DAF83CB60DD63DCCD978BD284A72BD18E1A4BD7C48CF3DF8FD903CD084FCBCAC011A3DA071293D24ADCCBD14BE7FBDCEE997BDB83415BDD8ABFEBC80F03ABBF46BA93D500E36BD28B37ABD34041D3D22A8AD3D44878D3D70E2613CF804B7BC50058DBD16C0C7BD14EF81BDF84604BD3078203D20D1D9BD00C6ED3D1E76B7BDBEDEE3BD1CE205BD76109C3DD4B14B3D82B9983D24399E3DB279EC3D30E5583C6C1A443DCAA9B93DA0D5E53C32BB983DD8E6CCBDCCE6B9BDB8F0E0BC94D0193D12C78ABD4C8A74BD6AADA93D742E4FBD50F320BDC0F522BD54A4503D70A1213CAE59913D20C4E43B0228CABDA6B3CF3DBC883F3DF0DB1B3C68D9BEBC7CDD623D24A268BDACECCA3DFC7BABBD3AFFE23DA0940D3D48EAC63C908DE0BD46C195BDA032753C4CD04E3D208E493C361FC73D266FB0BDF43DEABD60E1973B3659E13D2E92B6BDD0F36E3C00D550BB46C88A3D7090B43D088D9ABCB453CF3D1C77F33D26A7DDBDEEC6BDBDC628A13DD485DCBDAECBC13D58034A3D129EB8BDF49C333D64147DBD502B563DD24DA9BDE0C4923B90D5203D0CA03E3DCE5FFF3D8478A53D86AF863D60F58EBCC63E803D281F5A3DF024B63CC0509ABDC0B2353C20758EBB804614BB8EF683BD80578C3DA24090BD2A9F933DD846C63CECC823BD405C1A3C04A7AA3D80C3F5BADC344B3D1018023C765FEC3DE832C33CB85E1BBDEA66A13DF45D6ABD90EA3BBD8AE1E0BDF6EDF13DF08210BC1233C23DDA88CE3D6E55FA3D8A2CD13D907C033D08C98F3D322CDFBDEC20693D5654B8BDCADF9B3DE8BAAA3DD428263D48D47B3DB0771E3DCC1277BD525F943D3266AE3DA6B8F4BDC4FDA13DB0D7613CCCDCB13D2626E73D9EE5DEBDA21993BD6AC0E53DA01DEEBC68C1823D6A71853D506F43BC08EFCD3D58D8D0BD007814BA6C79803D08C5C0BD4A5A9EBD00AB97BC105C6A3CECEA513DB0EE823DA09D8D3B4CAD51BD842F09BDFC5123BD84DF7A3D7C5DDCBD46C7E03DF4850ABD388F2B3D4070BB3BB0A56CBD90D18F3C1E3C82BD1242ED3D10701D3DE8488ABC5261EE3DC43D8B3D183CEC3C4CFC81BD78EA683D08A1DC3C44B3F0BD00A19C3C30A9AA3CE0DE233C8684D6BD40E9603B4CF9803D1271873D8CD58D3D10527A3C74A929BD80FC9C3C2C7A343DD860623D184FD7BC304CBBBD7CFC683D6C9E543D1CD3743D6C603CBDC0C5B43B687BE4BC1A19993D60D4BCBD4475F9BDC276E7BD7AF1FBBD2CA1C7BDAC76E1BD54F505BDCEBBD63D380395BC305224BCAC5775BD6014293CC4BB5C3D480A8FBDAC99A3BD4053B4BDD25FF7BDBAEEB6BDC87CF4BD905C0E3C64B1AD3D6E8CBABDC438213DBE4DAC3D60BE343D10E887BCE051923CE8444B3D9845663D42BA84BD1068653D9C1E51BD08D7FFBD901A0D3CCCA9E5BD9C9A90BD8486E5BDFC178BBDEE8BFABD4813DABD20E1D83DA06119BCC4313D3D121D9A3DF2AB9FBD8E61D1BDF2BCB8BD201FE0BCB4F18DBD20D2DF3DF4C23ABD90C259BD9E9BAD3D60D0F3BD382287BC2472C3BDD01A593C12D8B13D3AC1AB3D785726BD68B09C3CF48081BD8E02FC3DE8425FBD0878E0BDE40DA6BD34250B3DEE27C23D9011BD3DC45C93BD80CF5ABCE010423DF092443C4A1FD6BD90B018BD745BE23DDCB6B0BD88C1FB3D809E6ABDAEFE9DBD1E7DD03D94DECCBD6474293D38C83E3DF4D55F3D885A0C3D683A893DAC88A43D724FA7BD105C81BC7E38F03D7C31563DEE91B73D68F0A53CD04912BD1025893C5406703DA0DAD0BC7088913C48D6D83C946BB63D607AF5BD00BA733C08642FBD3CD284BD648C223D207F8B3C6028A03D9098C3BD1A33C5BDD0B5F63DB00BE0BD44FEE13DE082313D9C7A28BD00D8BF380AE0B93D4002513DD0C2453DF8AB843CF04BE73DD68098BD3493FEBD5044BEBCB056A83C686DE0BC2820A1BD0A25E13DEC2973BD00C78BBB88BBC03D367A8B3DEAFEB43D2249DE3DF831EE3D98CED1BD68B8ABBC80E947BC0AFFF53D2C6E703DAA21CB3D8E65FCBD5CD380BD20AECEBB804BEEBCC435DA3DA06A4A3D18E609BD009364BA427B9A3DFC7CC9BD60702FBCDC120BBD104E18BDF01CFEBC0046ADBD8A9FBE3DD4169BBDDCE758BDDCF24BBD76F686BD8864DA3D280209BDD8AA433DC8B087BCB014493D9CB3483DAC70BCBDAC39A2BDC633833D4C60923DDC9AAEBD282E943DF04A373CCCAA7DBD509BD5BC00DE02BBC6F6C73DC03B9ABC4EE2FFBD80DE723B803C7D3D147A55BD00A382BB00AAEF3A64991A3D7A5EC3BD700A91BD9263CF3D082B82BC349C65BD703B0B3CDA348D3D806BEA3D2A9DB43DEC32803DD0032E3D008B8BBA1601A43DD0B41DBCE269F43D58D3B43D7C54AE3DD85A35BD40B5B3BDB8D6F13C2803EDBCEC7633BDAC247A3D9A27FE3DA0067DBC0CA2E0BD7A59A23D6050973B54C0F7BDDCA205BD605BCBBD340BAC3DE091A2BBD058293CA4DA80BD20C28F3B889EEB3DC09F4DBD405F75BD98B14A3D0E71C53D509378BC3098CBBC4E15D6BD94E680BD0C649C3D008180BBBC5408BD5C2D863D603099BD1CE0A9BD0C89E6BDB220F5BDA8AB64BD60CC9BBD202BD63C8AD6B1BD5A18A83D865CA6BD72D9CCBDAEEAE53D648EBA3DC86A16BD20399ABB2CA78F3D00606C3CD06FE0BDC0E843BC80872EBBAE5F8B3DAEB8C13D6868EB3DDA9EB63D2CB413BD02D3F83D302173BC30795D3C7C1A333D20EDB4BCF0AF26BDD044393DBC52E4BD989AF7BCF29CA03D7075D0BD189CE0BCDCE7F43D440D3D3D507BB73DFEDBFDBDF07BA73C2E9EF83D007D92BC38353ABD58EBD03DB81E1FBD9C634DBDD83DFA3CC2AF8ABD1A99843DF444DA3DDC64A2BD7A4A813DC08833BB343BC13DB06C22BC06B4973D4083183DB03B2D3D708B7B3C54839A3D1C2AE53D9C15BABD600EF63DE8A2F73D2C7CB9BDB03E9BBD189EFA3C20D958BD281498BCB80080BD045601BDC0A27EBC1A3EB5BD1E18A1BD44036ABDC0837ABD502C56BD7001543C802B9F3D54BA17BD600A9B3CA2D9BDBD32DAB83DBC0FFD3D96A3C13DB0E0A3BD50C4D9BDC432033DA0118F3B402E563DB8FE9A3DAA8BA13D98278C3D7EA9D1BDC220A1BD4002043B003694B908CF2A3D4AAAD4BDE0980CBDB6F3EF3DD678D13D3C01FC3D80489D3D2C16673D68C2363D46FFF03DD0A60CBC7853E73D745665BD0C0936BDC06702BB3E33FE3DF06473BD52E8C1BD9C45553D8CE40FBD4C5B173D6884643D1C9258BD66E1A03D904E783C006890382026E43B80ABE6BCCC423D3D8A85AE3D6C93873D4A0ED13DA09D1BBC40F4CE3B28A396BC0C7C0CBDC082CD3DD6F0C4BDCC40C5BD6036CE3DBA5A8B3DB09F0B3CD02BB13C48660D3D2ECB88BD40FA05BC50F6F83DDC25823DA47016BDE89F00BD482C9DBC647FBBBD30723D3CE452F5BD400C49BBEC42343DC4A429BDC0D244BC44F898BD700F6CBC50B996BC04AC013D24CCB13D6400A93DB0AAD6BD74058E3DB6E3B0BD305E5FBCF810A83DFC4E3E3DAAA8F13D0C645D3D6047C1BCBACEF73D26849ABDA052FC3C62FECBBD541E333D4253A7BD9260D93DF2E9E7BDB8F5E9BC9C7CBD3DC085CB3C5829EBBD4450E53D006C06B900BD5FBBB04C34BCAAD4B2BD489CC43C7275E5BD8AC788BD1C6414BD82EF88BD9217BBBD98AFD93C5690973D4802BD3C221DC03D68B6F1BCC89A493D901C043D8A4CD73D98885DBDDCD41D3D38A530BD56B4CD3DBC04823D7E31CB3DE0354F3DC4177E3D0E3FDEBDBEFDFFBD1899D8BD009745BCE243D3BD3CADEABDB835AA3C203AE03B78B5B5BC56F5B13DDE80D63D3020FE3CAE4BB83DE40DFD3D14AFD3BD30670D3DEA5EDC3D98A5A53D085D693D087182BD266EBFBD441ECC3D76A0E6BD00AB53BA782C80BD003A2A3BC002D6BD908D213C6474A2BDFC278E3D9067D1BD32FBFD3D2C1F52BD0851733D1C02773D3EC79D3DF02555BC30E8E63DC84891BCB82841BD5CE944BD447D9C3D2C32EEBDA87BB43C0E55AEBD94E511BD386FC1BC282FD23D009F243B98B4E0BC2EBB8A3D7051A93DF046C6BCA01AA53D587ECFBC6C7175BDFC0359BD6AFCDB3D34812DBD0AB5A63D101E38BD94B9603D10664F3D441C03BD48A6AA3C861AA93D121BA33D745C6ABDA8EC673D9ECDA53D342010BD18CB96BC70BF0DBC68AD83BD723F893DE4C27DBDB2A6FBBD30B6383D108D76BCB01BBEBD00384BBCB06AD13C302B88BDC4F1E8BD64A4FEBDD6E7AC3DC00352BDFC24E43DB04C4E3CA85442BDB633ADBD4C7EBB3D54674BBD4664D0BD4C496D3D1C81F33DA6CEB63D6C221B3D168D803DE06115BCA034C93BE6FBAB3D14B7D93D085F3ABD9A25B5BDBCE91CBD2CB253BD8089F73AE20C9C3D5057253C24F4CB3D7EEFC4BD5ECFF33D2EAAFF3D88214ABD0E9DEFBD18CB25BD94C690BD004B45BCE4A6243DB0DBA3BDF02DD33C002B5FBDF4A95F3D989CA5BDC0F087BB88D8BF3C1612D3BD60672F3C36A2EA3DEE04AF3DE4BEC3BDD43D38BDD8FD843D3493A13DA0E9FDBDE08FD53C2051BF3C2034EEBBA6C793BDE0D306BD3837D4BDA0E7D03DEC2D023D4077CABD92FBEBBD14B4413DE08E54BC2C912ABDEE7EF73D4CEAA2BD10C6933DAE2FA23D0C9BDCBD7C0F97BDAAA8D1BD504BB0BD308721BCB656AABDA4735BBD98927DBD6024C73B3405B53D3C0660BD647ADBBD18A2A1BDCE7FC23DBE5CDC3D80A9D63B30C624BC342059BDA282843DC863BB3C6065B93B002184BC30B0163CC8D2ADBD6635D83D90F2493DB8DE573DA249D7BD00DA7F3AD0DDEF3DDCC3833D4C1A03BD0CBB193D6A0A9BBD002097B954D4C0BD34C9E33D5E4AAF3D8868D1BD84BF393D7C3E0DBD8029653D60BCDD3C4837A7BCC6ECCD3DC07F683D9A63F4BD22FD9C3D60839A3DA48217BD407397BD2EBFB5BD086127BDFED3DFBD22C281BDEAE9BEBDE41BF6BDD2A9DCBD6488103D00AF603A1ED3ACBD208B06BD2ED6C13DFCA2543D00443F3B94486D3D701E6EBC246394BDAC520F3D208AE03D3CE3783DE639F53D6AAAEEBDB4C6763DD2CDB53D5884BEBCBCF086BD3A86CD3DE800E1BC52FDAFBDD888EB3C000687BD8825F13C50C44A3CAA2EE5BDA029F03B8A378EBD108DC1BC08E3A4BCC0EB603B0E17D7BDDE40823DA8ACD33CDC69EC3DE813E3BD92BDC9BD3450D33D1CEC3E3D20CE12BDF612C2BDA850E23DB8000B3D7C2E3E3D5CC6993D74D5EC3D525AF33DE0871EBDE42169BD307BC03DE4FBDA3D64F4703DE4845EBD008EA9BC5C4E4DBD4032AF3B400CD6BCAE63B13D3248A63D4CC88D3D60EC26BC4425B43DD830E4BC2859B23C680DF9BC9E49FFBDB49F1FBD5031DE3DCA20E1BD709A07BDB01E62BD4E31E6BD1882DB3C50B25A3D6029A5BBA610CD3D9269BB3D9806043D0054F9BCAE42E6BD5CB055BDECDFDC3D3471ABBDAECAB53D740425BDA4B06D3D208B54BD10A5B23C1635FDBDB8A9ECBCD08FA9BDDAF3C93DCC751FBD001DC6BAF26C903DF20998BD8C27753DB803133D7454CCBD00A480BA207606BD1297F83D1E43F23D60BB9BBD5A91DFBDDC8A74BD7A8B823DE0AFFBBBCA10A5BD8E96FFBDD847F2BD0C865B3D4084B43C88A2103D42DFBC3D3048223DD0940F3DD0C7503C5CD894BDBA4ED23D2E41ECBD4032F53D98B1A6BC808FC9BD043FC53DB453BCBD5832DCBD18B05DBD2296A73DD89DB43DA872CBBC2676803DA2E5953DF4CD13BD8E84AFBD6858EF3DF006093D74D4DC3D50C4BD3D7482403DA2AC9BBD5C23C73D0676F8BD9A8FCE3DFCCEA23D6EC8C43D3C969EBDA0014DBD3692EEBD1A3FC1BDA4F318BDA8268B3C003B223DDC41A5BD2048C53CAEE38EBDFCABA93D3CDE313D100ABBBC50DA80BD8884E2BDF818EEBD5CF39E3DC0654FBBF8BC113D8C43D1BD6C095DBDB8279A3D686000BD0CEEBEBD1AE5933DD4AA52BD5075CF3D98960CBDA0A4D4BCA2CBB1BDC4657E3DB84B7E3DB0B893BC705FBABCB08F53BC608B353C802F82BBC87035BD8A1ED83DC838E33DC873D7BDBC21F73DBA0DF83D7CB1E33D00A10E3B68AD9EBD6A68B9BDCE6BF23D1875F83C169AAFBDFC6AF53DEC17D2BDE82F6F3DEC2271BD0009DEBD44CD2F3DDCEAA43D6866E1BC8032DD3AD8E506BD781C7F3D5A4ABC3D94F39EBD9AE18F3D3C3C433D0C02F43DD0AEB2BD44CED6BDE814AFBD405516BCA01126BC3CFC88BDB008C23C8E888DBDC6FC943DE0D4E53C2CA060BDE8EEEDBD9CC3863D00E0433D3062FF3CCAFF903D68EB96BC0895663D30E940BDD82CB5BD8034D63A0C6AA6BD384D813C00CC413A44EB1A3DE0B26C3C5C9D84BD3857F03D207CF93B76AEA8BD30A2883C400FA63B060FA53DA461EF3D4CADB23DF843DDBCC6728F3DE477FABDAC7EF43D648DA03D36E3BCBDE239963DE4B24FBDECDD41BD960DD73DE41C77BD283D1BBD8891ACBCA8C794BCCCB499BD80A7C83CFE15D73D10ECD5BCBCA8763D8A8FDABD126BC2BD44953F3D1CE2A73D646EE7BD2C9FA6BDF8798FBCDA90BC3D3436D2BD20FFDE3C1835EFBD20A1843D707DC33D5072673C103E6DBC6AC28D3D60E6F63DCA3EFDBD44FA76BD14F9ECBD283963BD9484B5BD5A37BD3DE86C3C3DCA229A3D60415C3D00BC4C39A003BA3B2CF77A3D4E2BE4BDC458923DE079193DFC2D813D9496DC3D982B993D2896673D9C47B83DF4513E3DCCAE46BD045E0FBD94B7DD3D1C175F3DF034EABD3C3C43BD683EA43C501C663C926694BDD81FF63CFCB718BD8C78D4BD74CF46BDFC5C063DC24C8ABDAE12C63D00800A371E5ACDBD7000D63CA25ACABD0481D43DBCB970BD204609BCF849C4BDB04A393D9450883DF8A9A73CA68E813DE8F806BDC09737BD34EA673D189F803DC87EA13DD47695BD780A84BC487823BDC07B06BD5246843D08DEC1BD085F6ABD7C1C043DD43C043D2EEAB63D887F133D10C4F23D40403CBC1867F4BCDC395C3DBC4F60BD8435CCBD18C4773DFA29EABDC06CF73DC67F86BD70C192BC380103BDBA09A2BD38E0A13D68B6D8BCACEEBDBDBCC928BD38D851BD8EB6B9BDAAA3903D9803F6BDFA4DA4BDA05357BD382106BDFC9D1FBD6871503D103B2DBC18E2413D9028703D0CF215BDB4F989BDB48C493D463D9FBD5CB7C83D3076533DFE37B9BD00D6DF3930016B3C42AAB43D8047E9BDD86F8FBCA0E478BCA04BE4BC28C9BDBDA0FD8D3D24946DBD98FFD9BD146091BDD82733BDFEEEB9BDAEB592BDF256AABD30CAEABC1C44F2BD04E7C4BDA0B7F23CE8E5E9BD787D873C406DF2BB2C42893D1E48CABDD491433D447040BD60EB863D20B5883DE29C8CBDB8539D3D08B34A3DD4EF7BBD2C1089BD4AD4A13DE2FABF3DEC16403DEE85CF3D20ECAFBC8E8AF9BD008132BAA8ED823DC0A15B3B800A453BACD08D3D2CDB673D503E743D8888D53C40D96ABCB05CEBBC4AB293BD4071FE3DC6FCD6BD6CA32E3DA29AA63D64EF233D7033193C9E4CB6BD809084BC60D4893C905F36BC4844A5BCACEABE3D60F6B73D3069A0BCCE01A73D507E373C6AA4F0BD7417F33D9AB5CCBDCC529ABDA099BA3CC0B02B3B18E130BD0084223D40C001BDB66D8FBD10A2BCBD387267BD6A55823DF8DE3ABD8062583C1E87F33DE4F2DA3D62ABC7BDE4C71FBDAC0114BD6257903DA02461BCF0D79EBD4888AEBCFEE5D7BD5839203D06E5EFBDE05F643DA018B33DFC3710BDB0B85CBD6CFF683D486823BD4E3E85BD24D7A9BDC219BABD80DFAABD3882F5BD00A5A3BB705D63BC9C3970BDD6099D3DFEE8983DE04B853B003630BCDC03903D107C78BD72788FBD702D80BDC00570BC48F4823D3408CD3DBC95BEBDFA69C03D44A0B2BD5A80993D00F0FF39C817B2BCC07A97BCB6E3FA3DECF47E3D7449283D60F46A3D0C3D01BDE603E4BDA06700BC32FCE8BD5026CC3C2A2DD1BD4029793CA057383C44D21FBDC0F00F3D084BA1BCB4935DBD3C92263D3467453D80F9833DC015B63DC0C7FA3C3C09133D708C523CD4B55A3DECFAEF3D16CFF23D809DCC3DB0FAECBC4C3ADDBD466C9B3DA871E5BD90FDEEBC167CC5BD9E468CBD1854E03DC09A663C58D9903D0C70533DE4E875BD84B6133DA8EBA03C16CCEFBDD47F4CBD58FAD63D78E0C7BD18398F3DEC6ABC3DA608A63D3CAACABDB0D42DBD32538FBD26C581BD2E93B53D3865FCBC88FE4BBD68AAF7BDAC23683D24376EBDC0EA8D3D3086A63D2626BE3D007EBCBA50AB093D48984B3D4C58BEBDCEE6AFBDC66AADBD3207D63DF00B863DDCDE093DD8326C3DC492043D9285C73D0EFFB5BD6835513D403F733BF059423C7081EBBC48AAB43C1C44173D60E18C3B8405CBBDDC6ED43DB085FFBCE2D6CB3D7834D5BCE8476D3DFA62ABBD802D513CCE508C3D58D1C03CDA65953DEC33563D10E0A43CD818713DBC94DDBD1E409FBD2068C6BDF094F4BCF250B6BD4E8DF43DD20B95BD6CAF213D78B12BBD4489E0BDBC2912BD440D643D587621BDE49B5B3D6E7DB6BD78C49FBDF0B693BC90FE30BCB04F7EBCE03BCDBC12B8D53D4CA6FCBDA821B73DAA37F73DC86FFBBD4898283D9A7BDC3D24FC92BD40536C3CC403703D681704BDDCD686BDC235E23DFE23863DE08F86BD08DFEDBD5CE9C9BD8C23AA3D0AFACB3D983EFA3DCECECFBD702EE43D409B3E3B4862F23D48FC3D3DA65E8FBD3089A4BD6AA29F3D68ADD3BD1E4E98BD20657BBD007C3B3AA0E6D33C"> : tensor<64x64xf32>
    %cst_1 = arith.constant dense<[0.00614659488, 9.47117805E-4, -0.109166905, -0.0325204879, 0.0796013176, 9.945720e-03, 0.0250678807, 0.0625774711, -0.085312277, 0.00467829406, -0.0885159522, -5.73754311E-4, -0.0383684039, 0.0115908533, 0.123778537, -0.0475785136, -0.0861685276, 0.0148421824, -0.00667382776, -0.124909475, -6.414130e-02, 0.0275100619, 0.043421194, -0.102317438, 0.0128650218, -0.0300119221, 0.0823461115, 0.0582869053, -0.00300310552, 0.112277344, -0.10807851, -0.123812303, -0.00501048565, -0.0834825932, -0.106939644, -0.0154622644, -0.0015578419, -0.105379939, -0.116239548, -0.122561261, 0.124528214, 0.110769674, 0.0981114357, 0.111095995, 0.0600352734, 0.0856524259, -0.029646337, -0.0866987109, -0.0571884364, -0.0660445839, 0.0865353346, 3.59341502E-4, -0.0179654211, -0.0398273766, 0.0980092883, -0.107380211, 0.0184234083, 0.0473530889, -0.0862266421, 0.108512297, 0.0993889868, 0.093957141, 0.00903968513, -0.0391410142]> : tensor<64xf32>
    %cst_2 = arith.constant dense<"0x70E4AEBDD0B6F63C44DEBCBD4A878DBDF800153DCA388EBD6EDAB0BD4C28073DC01F32BB982EA83C08D2ECBC609BDC3D00C08CBB948C3DBD30F1203CF262C93DCE5A80BDE0351FBD623CC9BD68253BBDCE6591BD4084E5BC907843BCB0FC86BD085F85BDBC250A3D2015F13D184AF23D00420E3D8C16C0BD72BB98BD400FF8BC00FD4D3B106642BCEEF5D63D8462943D107974BC802A8ABCDA29C53D24C2D3BDD689CBBDFA6ADD3D183786BC9C55243D3847923CF4BB543D287CD4BDB0A1003C8C3EA53DA8E605BDFA2E923D204CAA3B84142B3DB855573D16C0B3BD36CB9C3D02D4A33D0020303DEC11693D2A5893BD562AEBBD4015EF3B16BBA13D08518F3C5EF9E6BDCC6C82BD98A357BDE424F5BD6AA2A6BDA45C8C3D06C780BD841638BD8ECB973DF0ED503D94F51E3D56C3E5BD48A20CBDC0ECD13B2C05D83D6066BFBBE8B884BC68B7DD3C40D04B3CFCFC91BDECD5FDBD1C2EC13DA47FCEBDB00BDEBC8C0D08BDFCC75EBD4CBC3DBD8CEDC63DC08D01BCB277B63D982E823D2807FC3C74C575BDB645B7BD5267B43DC0D6883C4EFEC8BDD4A1B3BD005C35BB900B313D164BC23DE078633D508511BCD2698CBD6E80CBBD84406BBD9A5790BD1CF555BD68DBA7BCCEBE813D08E8BCBDD4072D3DE0F7D23C1C807B3DA40D09BD8438733DD4BDE93DA4B5113DFE718A3DAA6AFA3D5E43BC3DE0F4CDBD88047DBD5A98D8BDB8B4AE3C066CDA3D14CC00BDE09721BD0E0DF03D6465BABD0E08BFBD40CB09BB08D6FBBCA0F3B03BF825BC3D5414A03D48FD30BD9ED5BEBD9011BCBCE06F263D3C3C9B3D00245939FCE94A3D8A369CBD18B915BD9C70A3BDECA8FA3D3AF1E33D8891C1BC549F063D58412FBD987CE33D200DCC3D381B1FBD10578E3D4A5A883DA479453DF43A0ABDA01A08BC52F4A7BDAE9090BD4ECDACBD96E8873DD0564ABC88D0E6BD5A79F7BD8095BB3DA819C0BDB0C61F3DE8422B3D0451BFBD60966F3DA8B301BDC0D9E73D7E768ABD30D6ACBCA878DEBC78A0D1BD0CD035BD50F67EBD12FDAFBD180E8D3D3433F63D5A36DFBD1C8875BDEC0E83BD14E40F3DA04DA8BC3EF1C73D48BDFBBC6091163CA89F53BDD432CE3D0E379FBD9CD3733D5843F8BC880BA9BC206AD4BDE01483BBA8446B3D96A887BDD0BF20BD4E2ABBBDB4B8433DF20CF7BD004D37BDBC86A3BDF6A1ACBD4224E3BD4E4FE33D2CC70FBD608B8CBCD8ABA5BD50002C3C9455753D14ACBEBD80133C3B6CC8A63D585CD2BC9AB9D53D1896AC3C4CBA573DC0CE783DD62EF63D5881D9BD487D323D009BA0BD820BE73D40EB983B0430E2BD98B1903DDC55CB3D8098933CF8FF38BD00094ABD7847ED3DC6ACC43D2E49C23D581FB0BCDCD5C23DB053CABCA041D23B3844803DEC3B7D3D20778F3BB877A63D78DDA23D8069B9BB4A39C53D705475BC803E9CBCCC6AB8BDA0B5BFBB1C289A3D62D7D03D06FFE0BD2283F7BD547EF33D40EA023BF02D193D805C5F3CC6F7C33D8C8E10BD14F8F83DF89531BDAEC5C8BDE441693D58FFABBD98D59B3DA20D90BD049197BD762C8E3D20A9AFBCC4634B3D6CFD4C3DD0B95EBC48EBFCBD18AB3C3DCC7F42BD464BACBD6C0B2DBD985196BDF0697B3DFC5A20BD4ACCFABD9E33E6BD80C91B3B8297FFBD306E153D8EDF8EBDB894C7BCEAD3B7BDF81545BD4832853DD0B9FCBD381F91BC94DA20BD6041EFBB0068A73CDC7B75BD00C8A8BAF0576DBDF8206C3D8048013CF0F1BF3DC2D8B6BD1ABEB7BD0055A9BC24F92FBDB605A2BD9C0AA7BD4069A43CDC84CD3D5CEAC0BD1EB58A3D64C9EC3D6CE5EC3D60B19CBD0CB0A53DD8A391BD60E60EBD74243BBD10A5733CC0A4F3BD0C9B65BD90DE85BDD037A63DBE86C13DF09E993D403612BD6E9DDEBD80629ABB700786BC20A5123C94F0033DD46A48BD1066F3BC121C903D80E551BB48CB6EBDF2CBDDBDD81ACDBCE4627CBD1E37B2BD547769BDF4C68BBDFC1F36BD0EAECC3D34FF29BDFCC84D3D22ACC9BDA4656EBDA058C6BB06F7BC3DC045A9BB208E233CBC6E98BD8C0B773D548F14BDF6019F3D407B45BBA434DDBD3E9B983D3A4EBABD52C2F13DF087293DD02BAA3D1881CDBCA6CAC0BD9441CE3DB07FC9BDB40F1E3D409850BC7C74773D363D973D7094D63DC0295C3C202BCB3B12A8F93D2EC99DBDAC8F323D4A8C81BD94DB103D82B4A83D7036E4BD32A4CA3D1265ECBD78B7F53DFA4EB9BDC05359BDF03FE83CC44C05BD3EFDE5BD4C96F43DC0CBFEBCD031473D9469E8BD5A52A53D4A13A43DD4B6CABD08B29C3C188AD8BD3881213D5C57BBBDB00F24BDD079DB3DB066823C3026D3BD7C46E8BD348FEA3D0A08C83D484F113D4CA4B43D4062243BCC236D3DF63CA3BD5891DCBC50954C3D125192BD5A1EDDBD08CB763D2000483D44D7B1BD48503CBD106AE1BCBED5FCBD602C9EBDE075D0BDE421DB3D4282E83D947C3FBDA6B5D8BD6CB4723D5418C8BD60A3C03BD06A6F3DC00C723D583819BD201CF1BC3616AFBD84F7D2BDDE31D0BD6826AC3D60BE99BDC0D3F83D5C8396BD4E55D9BD80EE32BB8A2491BD90566E3C18C4923C60105EBD6E4FB9BD70E58A3DB82E8F3CDE559BBD92CA80BD00A4D63AB04CED3C2459D33DF808C4BCD6ACD5BD2A0FA8BD426A81BD70FE2B3DC4EB1CBD0C7F733D98CEF6BD2005D43D929ACE3D00EF21BDFEB584BDFCA481BD884208BD94ADA53D2440EBBDA0CEBFBD38605FBDE0C4373D94C6DBBDE474733D5C50D8BDE8C8333DA09C7F3C2E8DC23DE817943C2003DDBB9049CA3C10F46FBCD0C8453D42EBD33D086C2E3DF810493D980897BD807B053BF03DDA3D00C65B3DA839FE3C081F863D6001EF3C6CD6E7BDDADDFA3D0C68D83D64621FBD380F05BD823FB83D002422BD08D28E3CC06771BCE455B93D5E6BC13DD4DD41BD24BAB5BDB0EACF3C2C45923D64AC263D86B08F3DB896F7BD80C391BB1CB40D3D3641D73DE0C009BD10B0403DFC08193DE063D5BBDA48A53D8E1397BDE07E1DBD3C75AB3DB8C0973DA8D2B8BCEC4CCE3DA641F3BD78D5BE3D60164DBDDA41A03DACC65FBDC44608BD003A5BBB4E95A8BDE0BF90BD08A0ED3DBC89E0BD568DBEBD74987EBD2CB2DABD9AC2C6BD78CEDD3C58E47D3D5C46703D507B7DBDA2F7D33DD45B79BD9068D0BDBAD789BD74777ABDEA098FBD0018803838473D3DBE45EB3DD811B53CCA98823D4060763D70CC4C3C04596FBD803ECE3C807D4D3C9C765ABD92CD95BD00C91ABA68EEE73DA88495BC4202C03DECB17EBDACE671BD267EF9BD7464513D98E8503D80DFFB3B0E10A0BDEA8683BD882C34BDEE27DA3D527CE23D98FDEABD48A6833D2012FDBB267AC2BD5046D1BDD02E683C286EE03D00530D3D40B4ED3CF29DF83DDC7967BD946F333DC0FED0BB0EA1C1BDF04D52BDF0AF523DEEBCF2BD6059E9BD0A3CC1BDE89FA03C9CAFC5BD6859D4BC7258E93DDAA591BD22ABC0BD903BD2BDACE7A93D6027A9BBAE55B3BD346C893D38FC0EBD1CE23CBD7065023DE6D8C7BDD06803BD3A19F23DC0247C3C604EEFBD84ECD4BDD0CBB23C16DF8C3DB0673FBC40B8B13CA0C9D43D6066E33C5A9ED43D40850A3CA2DFF7BDD478043D406799BC88D246BDC0C85ABB787EF33C9C4FB33DF875BE3D5E30E63D5EA5BDBDC0BF6BBD9814DABC60076B3CDA13B9BDA038CA3BA88E583D4C8BFC3D9C56BEBDF828A6BCC091D13D9CFF3D3D2807A03D6CC119BD90F364BD98C397BDF6FB99BDE4B3A3BDF8D202BDE8B65FBD00ED7B3C4E7FF53D748911BDDED0CFBD0AFCCABD0060823DC47829BDF87383BD1825B1BD60EAFC3D8C509C3D700D05BDC4DF793D0068543C7A12C4BDC0DB2ABD5A6ED1BD3CDF28BD2E65FBBD409844BD7ABFC63D8052833A804BD3BAD02B803DE860C3BD4ADDC5BD2A3194BDD0523BBD30E2E23CF83948BDE0153EBD30C668BD8CDFA2BD9C1A46BD029FFA3DDC3BC03D5477853D787DB93CE0B6F63D68A9333D30FD69BDEC0A903DAAB7F13DCA07C13D58EBBE3DBC600E3D60E947BDB8A2BDBC9E55833D220CA5BD901E983C008A8FBA244C6E3D80CE643D80AE933B466AC3BDBCAA9BBD504A6EBD8872CDBCFC752BBD00BFF6BB7CB2BF3D68C3CB3D78F3213DB03ECB3CBC7495BD80B28ABD6007BFBC00BEB73A70BCBB3C7030533CBE13F63DC8A8A7BC50B208BC80125A3B42CAE83DF881E23C0028C9BBCABB9E3DA42AA0BD4849A73D90662FBCBCA41C3DD4453A3D047869BD4077153B084783BC74F95CBD7438D1BDD822B73C0C33A5BDA4EB2D3D18A18ABD186F283D8629913D442E1A3D407E623B866EF03D24BDDF3DD693983DD8DD99BCF0C528BD10D0C13D68C3363D3ADD84BDAC48C33DA222CC3DAA18F8BD600FAB3D76F8BD3D6291AF3DD28ECDBD06FE9E3D04C838BD00925EBA188F0FBD000E683C223BCEBD8021F6BDDA6CE0BDA0C188BD303CCE3D5611FB3D56A1A5BD10E61DBD40310B3D2C1C81BDC0025DBC0A288EBD706A473C4E89B63DA009DC3BD883953D703B8FBC704A31BD20EAE5BD50C0B33C3C9790BD40C4FABB2A9BECBD446F4EBD569E9E3DC89B063D3A5391BD9A17C43D6241BD3DC4D215BDA81CA83CAA0FA63D9EA8EBBDDCA3D6BDFE52DBBD1AB3B1BD3CCD513D1006403DD0A5FA3CC018593D72FDE8BDB8761E3D10C3083DCCB6983DE852D43C2001E53DE6A0DDBD802B553C520EF73DC4669D3DA48CCF3D303B2C3C283D94BDD00D47BCD039AEBDA2D2B73D5E9D91BD0EC2B93D7C1AC83DB818153D38E037BD1422013D444DF8BD2A65B13D5C48A03D70625DBDA498643D804AD13A4656BE3D6607DCBDC0911E3BB015FB3D90F4D1BCB00229BC181AADBC041479BDCE4DEABD40AED0BC0645DF3D9864D03C4E04C43D2636EA3D96BED7BDD83AE9BCB064713DFABDA63D3824E4BCA478FCBDE008D8BD6C98313DE8C64ABD48FAB2BD923DC3BD101C26BDA020C6BC561AE1BDC86229BD94B687BD4634B9BD04B35C3DC8F3DD3DD0BA1FBD029EBDBDB0AF213C80451F3D4EA8A43D967EB4BD0028123A1062F1BD00B9E53CC017CBBCB4762F3D00CC0EBDD8985EBD402D9D3BEAC2E5BDA4C32E3D484FFF3C4CB0C63D7A76A0BD7C5FCE3DE09E0A3C8C20E3BD4E49DC3DA058953D2EFDC6BDA8E0523D007FF0BC6805D6BD405818BB84C3183D90C18BBC00FA47BC089D423DD86941BD5050E0BC089BEFBDCEB8F9BD0045E03BCA38B7BDC21BC23D6036123C1213B33DC40F603DF699B3BD4A93B53D889C7B3DB0B1493D0038C43C680ABEBD64FD863D884D5C3DF4323A3DB88BDCBD38F8863CFCF569BDE08E66BC5A3D82BD98A7D1BC24DA693D7064E73C54B21ABDC088EEBD26E5DDBDA0AF513D48B4513DB8F7E7BC98BF113DB0CF57BDF2C3EC3DA0A6CB3DCA01F8BDA29B9DBD4846F73CC8FCFABD1881C83D908D4E3DCC55503D4689D6BD8C93E03D786CA2BC366AFC3D803B203BA02728BCDC5EA0BDF6D986BD0CDFB63D94C85EBDF091213C12B28ABD9846343D60D2BFBC00134C3B686DBB3CE04F413C42F7EFBD50AA20BDC474D3BDCC6D343D3CFC2CBD50DF133C2C88E73D242040BDEE24EF3DD05454BC00EB91BA90B8983C243E85BD5CF9023D80C5A13B8C9D9F3DC42E29BDC0C5263BDCD5F4BD1A5BA43D60A510BD7C5A1D3D146453BDD06A72BDA0F6C33B085AD0BD06C592BD6844923D408F6D3C7652883D10E1BF3D107275BCA6948FBD64ABAF3DB0220BBD004897BCF0B9D23C24A370BD6C6B5E3DA2CDB6BD9C76BC3DBCC0BB3DB447F63DAA8F883D2058ACBB403775BC2CD8FF3D2811803D6A68C6BD5E3CB2BD88068CBD54A7F23D9A12DBBDC2BBDABD36C5B23D8854B8BC44FFD43DC05CAFBD0E0CF5BDC0CDE03D181F853D00FAEE3C22DCEDBDE2AD84BD6E07C93D802E70BBB686833D4C7C713DE07811BD00E4AE3D1CF7C53D106C38BCC49E67BDB0436CBDF0BFB0BC241E733D6868D33C60C5FEBB0875013DDE74C83DC8279DBD9647ABBD9077F73D28E5DCBC3090CF3C10EE37BC42EEB2BDF05BCE3DFA1BBDBD944474BD70044D3D20B101BCEEE5963DA40545BD0E05FABDA8844EBDD0B095BD527C8C3D62E7D8BDBC4315BD564AD03D1CB8BCBD8C48AF3DBC06CC3DF050743DD607D33D30DCB1BCDE2FAB3D2A949B3DF089E93C00E34D3B2047803CC88672BD807703BDE8F1BF3CAC59853DBCC597BDDC8097BDF0C6DDBCB081893C187AE0BCD8D58ABD44C59ABD8AD5BBBD0405E5BD70415FBDA6C4CD3DFCE3BDBD2ECDA83D208E943BAA71833D00EEC7BD604494BD5442DBBD3883B23DC0B888BD3C4C3CBD6230BA3DCAC19C3DF45841BDC8E59CBC24F62F3DF0BC6C3CA49E6C3D769ECF3DC2A1BB3D4031E4BD02BFB53D0855093DF0B172BD00A719BBE016193C2610EB3D947B883D88FF2E3DE085BF3D86E9983D5015EE3C986BCA3D86F3F43D2E3EAC3D761BCA3D8C73683DB4373C3DEC8D8DBDD85BD4BC6EB8F13D8C4CC73D2CF8CDBDB8D514BDD892AE3C745DC33D50DF8ABDB0BCA6BC5AADCB3D409480BBFCA8B93DF8F2AB3D3A2DFB3DFC11233DC8A1273D9095F93C842347BD00AC373B1EC0A2BDA0CFC2BBE8BBD93DF8F8BB3CA00237BC749727BD9CB7C8BD68469DBD64FC50BD74B9F23DEA10C4BDE8D8B8BC6CD60EBD00E6D1BD10ACE73CF024FDBCE04AC13C547D863D8045AD3D9E5CCA3DD86FB0BD8448CFBD109979BD8A68923D1E6EBCBD740EB53DAC35E7BD5C56D83DA80AD8BD1859BF3DC4CD40BDEE52D7BD2857F03C88A7A2BD603F593C9E299DBDA4B1C4BDCC3373BDD875283D0C490E3D3C71183D2E59E0BD80066E3C205730BD124FE03D54E70ABDE0D78D3DA848953D14CE8F3D3EB197BDEC4B90BDD808603D7CE78EBD2C67D93D28DEBC3D22DEF8BD56BF96BD8CA8B13D3876713DB6E3B43DC658FFBDE03AED3B8811FABCE0DDD3BCE0B7843D30FB673D8895A93C406E3E3BC43411BD94BC313DACAA023D98B5343DF4B9B6BD9C08C9BD6EEF98BD60B18FBDB8D6CCBCD6C7CA3DCC57463DB8787A3D0C09EC3D105DC63C56E4D0BDACC10C3D404C9E3C324AC5BD02D3A53D4213BC3D7C25753D5860F9BD306D983D0E8CBCBD60A1DABD80F36CBB28D406BD387EB33CE0CD0A3D682276BD10DD793DF4FB363DA88DB33D94F5B9BD4C56C3BD00C299398096EBBBF6A0DDBD20D8B93B0018D9B90C9CF93D906F823D169FEC3DA089E7BD388AAABD88E2ABBC0CAB553D6E4BABBD4C8F343D423BA33D7CB4BB3DCE5AAF3D908AE1BD28367E3D204226BC0CB78ABD001AFC3A70346CBD2A46A53DE8EE933C080CD03CA69DF7BD9CE6513D74A5043DCC21B7BD18D5C43DC04B543C4047DB3D3C7755BD62AD953D6C91633DB849843C2A00AE3D3C78A7BDA08CD8BBD44A7A3D7092B4BD08A77ABDC8C2ADBD00C824B9106F013C80FDC63AD0E788BD3ED8EEBD7021323DC86CFABCBA1BCDBD8CCD543D4807DF3D8009D63CD8940DBDC8B1A1BD804F99BB58EDEFBCF0FA4E3DFA3DE23DD0C3363C781C383D266DC03DF84CE9BDCCC36B3D44707DBDA055C4BB60F2FF3DD0676F3DD88F6A3D50C566BC2077D33CAC6C3F3DF08828BD1E208E3DCEE8C73D843F0BBDDC3989BDD0E7D6BD382387BDC45EA9BDCC9E4ABD7446E9BD2CD3E6BDD4E7DBBD88E651BD585BDF3C5C68E53D283ED53C5CFDC7BD3025E7BC0061FE3B001EA1B910AF61BCD8BCAD3C2C4C52BD7EBB8E3D3AAEE93DD407D1BDBC250F3D00BD5A3D80693B3BE0DF613CF0DC15BC601CB0BD38FFB03D129FC73D00D335BA024299BDC0884D3D1C71E83D0E26823D307CF53D345514BDF4EE973D42EDEBBD9A9D98BD9A37B4BD90EB20BD741407BD2825FC3DF095CE3C90DE86BCF82409BDC8C1C53DD085573C6877ECBC987BDBBC406206BC002A35BA5EEBD13D4CAF5F3D9C05423DBC3A1DBD5A0CE43D7A29B4BD9277843DE015503CB6B8F13DA0D6EABD2C4B55BD947AB23D4ABDD93D7288DA3D74B5DC3DFCFB90BD0897DABD5815C0BC9E47F4BDDE38E5BD70B822BD144795BD54314B3D46F7FCBD5AC2F73D409E93BDDA47FCBDF0E2243CA4ABB73D54E93F3DA83A83BD1654FCBD4C739ABD02938EBDACC64FBD3425B0BD8624CDBDEC89D7BDD887A4BCB06A76BD4CFE583DF4BB93BD8081AA3D104295BC0C11B0BDB0B185BC52D5A93D40F1623C300A6CBC4448A53D545B78BDB60AC6BD5CDC413D9A9B993D3443D8BDBCC66B3DC05B08BC0C1375BD9CDE653D02D1A73DB895B9BD1E51FABDECD04C3D64F850BD48ABA9BCE053563DA8A8C23CDC7F38BD1201E2BDC8C33FBDB8EE753DE21AC53D08B276BDB88FB03D00CD9F3BB8AD7ABDACA5333DC699E33D945360BDDED5F03D385B0FBD10C60E3CA803923D6C21C93DAE18AB3D84A325BD24B6153D78AA4DBD86DDA43D7071DA3DD8CEE73D44AB563DC090823BC2D3EF3DDCA8DEBDC8FDA03D4C66313DEADB89BDA8E5C0BD168A9F3D407986BBCA1BFE3DA8A4EB3D2E40AA3D3C717C3DF691F03D0AA8ACBD600AEC3B00D9D03BBAC79B3DF0CF07BD5873C13C2014B13B44B0A83D105931BD00247FBA8C6D1D3D104B8C3DB661DD3D148B7EBD18BED5BDBA04C2BD7C43CE3D58C39C3CE094B2BDDA16DEBDE01EECBC60F9193D601125BD3C10853D70168F3DC807BB3D1CC80E3D2CA44B3D5CE1E6BDE477303DC828373DCEA1DDBD90F612BD8E38CBBDC841B6BD8AC2EBBDB080153D78B6FA3CA4F8723DACEA2FBD300BF3BDECE2E2BD3ED9AD3DC065603CB8D8A1BC9233B9BD14855A3DD8FBD3BC14CF77BD0059023AB4F2BABDC201F03D40E8343CAABFA93D6E3EC1BD149A9BBD0C1A913D9655B23D0E86803DDA39BABD5201B63D4C5D31BD7E54FBBDC0847E3B947A113D2C3E2DBD6292BFBD4C6660BD4C37C43D40B2A3BD9CEF593D9EE6EFBD642A5B3DFC47893D70E770BDA065BCBCDE4C99BDF8A7BC3C16E4BD3DF07791BC88EAAF3DE00BE83DA6EFBCBD0E6BA33DEEFE87BDA8DA8C3D98BB4CBDFE74A7BDB4CA1DBDF87233BD00AEA0B92070E13B405509BC303BB5BD388A89BDF0D1FE3D8C6D81BDEC71613DC85CA13CD6FEBFBD30126B3CC0ED643D86AFC8BD4057A33D203BF63D746408BD30958DBD1CF3BBBD287D57BD00289CB9B2EFB53D44BC3CBDAC60DDBD00474B3C18C5143DD0EA4E3D7042143C2A80F9BD80E80E3D64B8633DC8C726BD40C6C7BCE023A53CBCE1FD3D5053D13D3435D53DEA65EBBDC009AFBC4643D1BDC8C7F43D44E922BD16C0E6BD92A4F83D0AA394BD808C763D80ED91BD001D1EBA205DF03C005B8C3AF06012BC30F450BDEE99E3BDF071C73D78AADFBD7870363D3C149CBD14CDE53D60B34B3C00E2263BF4E61B3D12E3EC3DD436DB3DCABBA23D729F853D10C6603C84B63D3D04DC883D30BDCBBD3C5B7BBDEC43EABD78D628BDE85797BDACA81C3D1A43FC3DC09E2CBC3A149ABD40D0F33C4C7EF8BDAA1F8E3D966DC53D36D6EEBD5AA38FBDAC29363D529DFEBD2C836EBD78811B3DB49C05BDFE489A3DAED08B3D08A0203DF098A3BD5468303D58974BBD60B822BC9073DE3C6273B2BDD0E171BD4CFBCA3D889F91BD388605BD709B933C9CF54EBD805788BC6C5602BD6AB5EE3D04303B3D2C4D463D38AD02BDECDE613D383CAD3C3E00DDBD901D9FBCCCC6E5BDFE76CC3D2836E8BDC0F0B4BC844160BDC0F4373BC0DBA13CACA8233D80822B3C803AC53C28DAD13D38A38CBCE05820BC3865E1BCD8451D3D6235EB3DB4FE083D00E3EB3B54CCA9BD607C9A3CFAE1FBBD1482A73DA0AD403CCCE483BD6C6BE1BDB4F9CCBDDCD1A63D004D55BD1CED2A3DEC676EBD4849ABBCCE24D6BDA0FE743CD8E7FA3D34EBD13DA04B143DF04EBDBC26F8A43D4E55A03D84866CBD7ED6CFBDFE36823D60C8223C686FE03D80B0A93BE660D63D06E8CEBD9CE46F3D3AE8A1BD8E15873D981938BDF820F33D58E9DD3CC0C431BC88FBCC3DFE90AF3D1CFF44BD9234DF3DD04F2B3D16A6C53D1EC3A2BD1C72153DB046C5BDB4798E3DD0E776BCDEC48CBD78CD873C9EC79D3D8A1C99BD04CEC8BD0C565C3D7056CBBCD0BCEF3D3C14DCBDC293E03DC823583D6C14653DB876FC3DEAC3B8BD281A3A3DF4A163BD38C5E23CC64ECE3D640703BD484ED43C04A692BD8CDE093D46AB81BD44BA323D1AF0D2BD701CA63C905D403DEE5EF03DFADBDBBD20EB8B3C80DC4BBB4803CEBC6C38A9BD20544DBD5867AC3CC0DCBDBBF065763D1C94003DBE90AA3D380A8EBC2E8F9D3DA40B3F3DA03D233CB867EA3CC27BDFBD426BCF3D00668BBBE6F1F5BDF0BC78BC7E61D6BDF4F7063D18B1E5BDAA68C83D1C560E3DBCBF993D64D12DBDE26BFABD7ACAEB3DD2018DBDEE21A1BDF03AE2BCE401C5BDE8BAE8BCBC7C843D408D9D3D786AB7BC72FBA83D90DABB3D7AA4B13D76C4B5BDFCA317BD346DABBD28BEEA3CA41DC93D7C4304BD6E78CB3D30F09F3CB8DBEE3CA09C49BC183191BD809C3D3B40E0C83D92519D3D94620E3D48E572BD6081F03D00E4F53B9A87C4BD84EEEC3D68C9EE3DA8E3BFBC18C5AB3D3423ED3DCA1DDDBD00A5F23BA4ED40BD143449BDF6D5D63DD8FFA63C086F42BDF061E43C84BDDEBD023A9BBD72CED0BDB0B0E53D0466423DB8F56CBDEE90DFBD9CA24D3D104C793DA4DAB23D84AB1BBD44F98CBD02DA96BDF41C253D346F89BDA0A343BDC052C23DE02999BB40D9AFBB88D9D03C6C5EA2BDE45D29BD2C59473D20259ABDC815F73D585BB0BDC0A274BB10C1153C78D8EABCC821323D16B3BA3DCCDE6ABDD8E60BBD409FFABDC04CCA3C6097033DE0C7703D5010953C6041293D66D99C3D2441A9BDB8E06E3DD6C7C5BD50A5833CD4F3403D6C642EBD18D2C43C5805A23DC6DAEABDA071C33B002A5ABB80DB193C16FEC03DC4592E3D9CE35C3DC238B03DFC9E72BD00C0833798EB1B3D32B6A7BD2CCC173D90FD4EBC3E3CC03D62B6B8BD005BFDBBF811BABDE6858D3D942C223D6C6E56BDDCE37C3DFC00653D3806EEBC7874AC3D4089C8BCE4E792BD0E21A93D263C803DB4EABF3D40C8CF3DECBE063D547BC23DC8635E3DA06795BD508CB33D10971BBD72D0F1BD98C6023D1296BA3DC827ECBD448F7CBD98E7E5BC406E91BD802B913C705A2E3D903CE83D364EFC3DB04C8FBD74472ABD4CEB063DCC1E3CBD6002963C40E5883CD80B62BD10A962BD186BA5BCEE59EC3D0CE831BD84CA3F3D6E02AABDC0DD7ABDA4D7283DA0D3873C7CAFFABD60D6C03B704B7E3D82A2963DE817FF3C84AE333DE8940ABD184055BDE07063BD9242A23DB0F3763CAC5F023D0471E23D00AA633DA404EF3D107D29BC80AC1C3BB619A1BD00A5DE3A6455533DCC4C3CBD0E97BFBD202CB33CF250D2BDECC7A13DF4D54A3D44AF973D56E0A9BD309FAC3D30B67BBCF69684BD1C84C9BD38F73ABD7C6AA33D5AAEE7BD8C99073D407D0C3C446C16BD2E67FBBD6649A9BD2026DA3DA07A0D3C7C30E13D1661F33D985A143DE0DB173CCE41F03D04E381BD8058EBBA246A2DBD9082A9BDB0F454BD3C1F84BD001304BD3EEBE83D00E94E3C54324BBDB8999ABD94673ABD1097C43CA6A8D73DA8E1B2BD54F976BD086483BC8877BB3D18AAF2BCF046F4BC4C6A4CBDC2C6B23D0E46FABD8211BEBDAA31F5BD00A682BBD84221BD9E929ABD181E91BCE812A8BC14AF933DC821D23C784E733DF0F94FBD287CE0BD2CCD1BBD203A79BC10AC76BD0043303B3A9AADBD80CCD03C180F963C7C3D58BD1AFC8EBD6C3EBC3D6AEBF7BDECA16B3D30C8023DF00F0A3CB076403D54256C3D8C7451BDF045A23D18C785BDC05C383DFCD4273D9E37B53D50CCF03D2C02AB3DE826CEBDD8FBD43D20C8A63DF08B923C746C0EBDB2B2A6BD58F12EBDA044D63B984AA2BD74482DBD0ECBE03D189D95BD40782CBD8E96C1BD1CCF37BD9021DEBD385928BDE0EA45BDF84405BD86C78E3D4CE7A5BDB007CABC2454D93D466A80BD363BB7BDF873593DF884E5BDE8B5633DE08B153CA0AEF7BCD0DE413CF0AF783D86B29DBD3860E2BDB48E023DC0282E3D9C4DB73D9A20E43D3C20EDBD7ED9B7BD04703DBDC261ECBDE0E1BFBB78D62FBD40DBF63B882A093D000C20BBD06B613C44CFE9BDD8BBE3BCF0433EBC6C91B3BD4E9ED7BD047495BD0476E63D28D6213D005B403CF8FF9DBD80774BBB06599A3DBC8D313D5616A3BDE087F73C58153E3DE4AEFF3DB0ED4ABC9A12DBBD40669CBC00A61E3CBCFD16BD90E0123DE836813DDCB5433DC823F3BDA874B9BCE6E6973DBA13D5BD8C8E05BD00E71F3BBCC384BDE0CD5EBC5A5CAFBD60CBC0BD0C8C8B3D44C6B93D8C229DBDE468063D5042243C84AAA1BDB8FFEB3DB041BB3D508B18BDB0F17A3D5080573D4E55FD3DD0B6C23C90F95B3C9ABCE9BD18F87DBD0604B43D5C86CEBD4C39A23DFC1993BDD694AABDF0A5E8BCAC1EACBD6A16F4BDE8665D3D60CDB83C74B364BD289DFD3C9C3C6FBD3A0F9CBD40D3FFBCFEAFC73DD47D303DE074E83B84C6CA3DC029BF3B1E6AFCBDECA1A8BD20F07EBDEAEEAC3D9699A7BDE0C2AE3BE07D153D84B201BD28B8C13CD89799BDE618953DE675F73DEE4BD13D4022603B3C459C3D7C1BD73DC2EB8EBD18D8CF3D92C2DA3D80C30C3D96E0AB3D44B8A93DAE91833D9074393C18EDBC3DC45470BD9ED8FD3D345ED93DB02AB43D60CDAFBB525894BDF4E1903DC462ACBD1A50A93D4023593B1E678FBD9682B43D18ADDABD4088DF3DAA41E33D70AFA33D88EB9C3D10060CBCC4CD00BDAC0D49BDA077D1BD04C43D3D2093B43B94A8083D8CAC0FBDA4E8853D44100C3DE8AB733D80A6D2BCE8EA1D3DD82C27BD6AB1AC3D8040953B841E263D004F25BCE680EABD30470A3D86D7C0BDC24DD13D6864A1BC50A0373CA0F9733DE877E0BDE67691BDE02ACC3BF8EF013D1E74973D4CC1493DBCCA153D4458E43D28FB97BD40BB193BF06F9A3D28CEFB3C9804A33D8087E23CB0A65D3CC0058ABC40461ABBA0A3A3BBA48FBBBD0CD8DEBD4C6784BDCC1B07BD603EF6BDA4B3AC3DB095483C2602ECBD203B05BC3049ED3CC8F3F13DC80AF43C70E488BC80B82CBB0068913C1E4CE23D8232B5BDF0C7AEBC4A39EC3D08F18ABD446D75BDA672EB3DC278C83D80E7D53AA0BFF13C20E6423CF242D73DDA94E0BD40E67F3B342E1FBDC0F7F03BD0A9BFBC34A6A33DEE5FF73D985C8CBD40D9E3BCD0759ABD02C5D6BD3275E43D34A35C3DF4CE8C3D5662C3BD8805C2BDCCAAC4BDEE38FB3D60BD18BCD622C13DD87C69BD509BEFBD282B93BD4CB2A63D78E224BD7896F73CB0F4153C7CFF803DC0C505BC1C69E4BDA86894BC98ED93BD704D62BCAC97BD3DBCB582BD4061A7BBC8167B3D6806523D18D64EBDF89EE4BC8860D3BC2C2C0A3DF4993B3DC0CF4FBB98F3723DC0EE06BD1680F43D72B3EE3DD0B169BC5243E6BD3AD681BDA446B43D607C8B3D94CB0DBDA6A9D9BD98C8FEBDF0F84F3D5821EA3C98A5EABC5CF7C2BD8085B83AA42444BDC05271BDF62AEB3DA0C18ABC00E8C0BB0C310C3D4CF9903D00E9CEBB382B803C62A0FABD101AAF3DA63B9B3D5099D63CFC9C763DE06056BD40FE9DBD480FA03CBC5B7D3D3A9BF2BD42A1B4BD36EEF53D689A7BBDB04E643CC0C412BD809637BBA6B9E7BD6E4DE2BD64B88D3D9A9BA33D6CD873BDB871F8BDA2A8A3BD3E24F73D58AFB3BCE025193CA67791BD988C7D3DF8A2B23C6053AABBC665ADBD3E60E73DB46A7DBDD035353DEE2D813DF0B3DABCEC3F59BD608A83BC2438AFBDA42C0BBDC0072ABCC0BEEDBD521CBB3DB6399DBD301780BDF0EC54BCA87AAD3D18D3273D6471E8BD0E80BA3D467B96BD6897ECBD78329ABCB069C43D387CA8BC644C6F3D98F5B23DC430D4BD1AB3EB3D10703D3C000392BDA016B93BC898F0BDBA929ABD6A5C8BBD26378ABD7ABEED3D78E9953D6CC65CBD906F9ABD907129BD5294AA3DF4F7EE3DA049BC3BA060E4BC84B92C3D985AD0BCD03C61BC04E8EE3D086EFEBDCAFFDA3D00AA773BBE6395BD8810FA3DAC36CBBDD4F94ABDD0E2F9BD02BFECBD74BB23BDB2B1F3BD3053243D02A3E6BD1E4ED73D7022253C8002D43C42D6813D9E59C93D50DA3CBDF204D93D34D82F3D522AB8BD6E948D3D9206DFBD3C4B19BD0C82E7BD8867C3BC6A46CD3DB4965FBDE235A7BDE49B87BD36C590BD902A0B3C445595BD584CF53D2025A1BD50022B3D1C5A203D1C1D87BD506D753D58965E3DF04E72BC60CA9CBBC0F516BB90FC5C3DF8D9DABCC862D53DB0198E3CF02A74BC00E4E73D0098B3BC601A50BD186B923CE4BE86BD5CCE0E3DA015FA3D3ED7FC3DE40C7D3DD4D7233DAE42DC3D6CA326BD5EA0BC3D206E8B3C640B09BD04561E3DCC49453DA0DDE6BD609F08BD9E8B823D00750C3B2E55ADBD0848773D9859533DC883A7BDCE82F33D4C9BFD3DAE5ED2BDF4B377BDE005463D802EB73BB01DB63D9EAFCFBD340FCA3DA2C0C33D707A53BD848C243D78C6263D2671E3BD583C4FBD900BA63CE2C5FABDE622CA3D5650F9BDFA80ED3DD8F6A73DB0280C3C6485E13DD0AB633CC82F24BD42ACD23DA06F073CF690C63D38B9C03C50F98ABC385AEC3C7453ED3D80FA13BDEA3A90BD50174CBDB0FD6ABD58821B3DB40B28BD44E0223DB20CF9BD80538FBC9E9B9BBD609349BCD40B9ABDA8E0CE3DCCA2FF3D3899C13D3E36D3BD0461CD3D0826BE3D4873EC3D4601D8BD12DF8EBD1EA9FD3DF87EAE3C00ADE63CEAC28D3D52CFC53DE61EF2BD4CAE9B3D40FB1B3D2E62DBBD1084D2BDCEC2D43D78A49E3CE0EDC7BCC6329B3D00A363BB00B186BC18109D3D185BE8BD120FC43D9249CCBD084EDFBC74CBF1BD40F9BDBC4CB342BDC6AA80BDBA13ED3D8C90E13D10F09B3D5898733D8091D43DC080283C4031CE3C8E6F98BD6C1D493DB0424E3DE6B2E3BD589CD6BDFC9EF93D0AA3863D700BE4BCD81AE83CD0A062BCD84992BCA02C343CB0C464BCB86465BD6AB6D1BD9602B7BD88D0F3BD5625DE3D2E73833DC00D85BCB0B6D33DA82FA63C3085333CE21382BD4CABDDBD185A80BC903D52BD9EEBD03D186B92BDE013A9BD6C36723DA057D0BDC0900D3DD84BBD3C4E98FB3D006DE43D383282BCAE10823DF42BEEBD1C094D3D50A4D93D4C0BF03D12A7CA3D12CC893D848B2BBDEAF1C4BDFC83713D6CAE9E3DB00F31BC20AAC1BB5AC1F23DA04514BCD8D76D3D0AD39B3DE05E803B8A12C3BDA25C813D3AE39EBDF4B82FBD80874C3BB2C8ACBDA6B2EEBDA8EFC13C30389B3CD088BF3CA07700BDACA09C3D2E92CFBD9839593D40C7783CFA0CCC3DAACDD13DF42783BDA8FAB63DDE6EB1BDB69CB1BD9EE6E53D1A40ADBDD88164BD84EB203D6CB74ABD28BDAB3CF818E2BD008EBC395442053D5C22D23D68A2CFBDE0A9CEBBCAD285BD08FB3B3D7CD2713D9EBBF43D4843263D801C8BBC7AE2F83DC08505BCC49325BDC074DD3D943DF7BDD014BB3CD49E963D0A4FDC3D40E32BBC8080723CF0E3283DF0F656BC3827C2BCE4C025BD8008533D665FF03DD64699BDCEEDD6BD38A22DBD00E34EBB5CAEF03D428291BD884F883DA815413D18D6D1BDC862C1BCFCAB4FBD5E6AFC3D30652A3D7034C4BC000ED93ACCC83A3DEA2AED3DDE5D82BD1CAB39BD68F554BD605AB93D68F077BD62E4B1BDC8D2203DFC10313DC8CFE43C40913DBC189605BD5452173D1AC0873D9058363C20E1ADBD841A6ABDB0A2B7BD74E0EC3D487EFFBD2002AD3B7088D6BC2EAABBBD005C373DC09F0C3D82318FBDC871D43D36F59A3DC4B2CE3D627CA13DC04EBCBB4284CEBDF4D6223D24F3DABD00903BBAAE3D98BDE0D8F43B189BEABDDC7FE2BD8E0CECBDA81CA33C7635DD3DD0B605BD9AC5A2BD68D9ED3D60322ABCC45C3C3DC07B673D60F4C63D003095BC54D5A73D4056673B586FFF3DB830C93C90D8363D12C4F5BDC8B9F03CAAE7943DE86140BD9070ECBD9C5F5C3D7C841F3D00C082395062D5BDD4E4393D0C7BBC3D98DFFFBD302C34BC44D6143D9848DABCC07C8ABB4035C6BD40B006BDC063BC3DAC75D7BDF021CD3D082AD73C688C723D54A90D3D0002B3B93CB64BBD8433273DB4F760BD2A2AF1BDC802EABC3087B13D5E29A7BDC0570B3D783C2BBD30BCDB3C407C9D3DF4A0113D6083443C5EF4A0BD445894BDEE18A03D400B1F3C0009723D50FF853D86E3F9BD705F6E3D00F4A93B6C9A3ABDE8640BBD446EAB3DAC2AD5BDB878B7BD1E3AB4BD00473E3A64D8733DF8AE563D0081453A8604EF3D4CAF583D1A23B33DE81DCDBD682999BC1847F43DAC9BA13D1829173D904DE4BCB8D89CBD00EB293D146A0C3DC8548B3DF82944BD62D19CBDC88BEDBCBCFAA0BDDC18A43D10F3263DDC88243DD8F5B73D80F404BB485A88BCCA14C23D68D927BD3E3E93BD0A61C2BD4C903BBDF44BB2BD9C8204BD289A3ABD6C381EBDE08AF43B7EC3AD3DCA5A9CBDB8C3B73CC8FAC0BDE29AFE3D5CDDE43D746B14BDA04B4CBDA0A99BBC02EEDD3D0C54503D2CCFB13DAC9EA83D40BEB2BC50F6C1BD8098633C9A8CF8BD4C929A3D406B29BB380B7C3D1AB1B23D2C4258BDF41627BD9E9DE43D806D1FBC90C7C2BC24A1AEBD288BFE3D82D9FCBDECAD4FBD40650F3D0A7FDE3D78DD9FBCF2EBDD3D080AD03DC0060ABDE8E2ACBD5AA3DD3DB09D2F3C40AFB2BC60ADD73C82E4AF3D7284983D18C9B2BCD6DFF9BDCEC3923D60D6E43C981DB6BCA0D6CABD0296A53D1081303DBA13C1BD64653DBDE81A94BC2460C43D004E1CBA381E7D3D94BA8A3D5E31B3BD5A99DC3D48B297BD80E1193DDA12F7BD5A1BB53D184E48BD2078213C30A25B3C9831C93CD093D53CD00B3B3C36C0B9BDD8D32E3D6EF2F33D4013553CF8DC90BD20E24BBD38264EBD0088453BE8CA983C4AF6D03D403F973DE625C3BDE055E9BC0097323D5285F7BD667CF83D7EF0993D8AA8A6BDF81FF23DC03DB1BC24FE79BD749610BD08794E3DFCC5843DB85EC6BD18D1163DA6E7C73D6434473D6086DABB9047133C2EE987BD10557CBC50C0EDBDF0DCCE3DE08795BD76829CBDC014033D6048273D4267E0BD34D8F2BD36CDE23DB6D2A8BDC09E213C6828343D68D715BD549718BD98CFA23CA4588F3DC03B2BBB169DC83D101DB83C022EE13D9095C33D40BE093D1870D9BD401484BCCC01B9BD28B6C13CC2DAC73DAC7ABDBD40DD383CE0FF773DDCEB1DBDACC7D13DB63FD93DAA28BCBD4CEA6E3D5008C5BCF4E946BD02FBCCBD28724FBDD8C98CBC5A2094BDE4E7823DBCCA47BD6AC489BD4456A33D9849BCBCC4E37B3D7EB4D5BD5C46A63D2858C33C129BB23DEE688FBD107A29BC2833AEBDA4521E3DE03C30BDDE2B933D00B6683C3A89843D9CA094BD28E9C83DDCFA4CBD703CF0BC2C8E6ABD3882883C58DA0F3D94AC72BDB69E80BD840228BD40973EBD2AD3FBBD2CEB663DE0D6E3BD148CD43D1E5D99BD0028D639F0CD263C808606BDA0A93E3C4634C5BD1C547CBD1067693CA0EAC8BB8E0185BD468EBA3D002FCD3DC874F93C6CF87E3D48757D3DC05475BCB8A0323D80B6D23CB0529CBCD6528F3D6E109F3DEC314F3DE02976BCD0A955BD32D2F53D58E5673D804E573D64A52EBD989A90BD9E5FEFBD80E681BD4CDF1C3D44BECCBD845EFCBDE0C5EA3CAEEC883D3845003D2ACE9FBD5CC18EBD4EC3E03DC272E1BD34AC243D883A66BD000F3FBA16E38D3D786455BDA004C03B5031FABC78F13CBD4659A83D504334BC80D6AEBC784BFB3D24DCA9BDAA6DC53DB851CEBCEAD89A3D9CC16BBD989108BD8C6E5C3D38B07C3DACA816BD187DE7BC7A95C33D7842BA3D70C2463D4E98913DF0074CBD62C48DBD106CEBBC728AC9BDB637B03DCAACE73DA0766D3DF09E22BDD43D6ABDB08E623C4A8CC4BD706EC8BD94323ABD8CFB4CBD809201BC308174BC8C59FCBD549AEABD401469BDCE0FDDBD00D81FBA2C49ADBD4491A1BD0C25233D602A7ABC962592BD7C1738BD80439F3A00311ABD4810E2BD20D7D4BDBC4CC4BDB632EBBD7E22B4BD700B37BCF6EA93BD3C09733D7E17C6BD78173EBD2013BDBC2ACAD53DF42836BDD047AEBD888BEB3C6C756FBD4CA47FBD6046543D44D7FE3D2075433D04444B3D70085ABC402D553DFCD23BBD50EBBBBD007CE3B9501F653CE03C243D8605BB3DCA50D23D403E48BC0459E03D3804B9BC2864653D2C2881BD90F6B63C90D3C23C4025443C3402A83DBCD86DBDB657D4BD1A2D94BD3E29E6BDD0974EBD78C6BEBC247099BD8CF5B73D8029423C184AA6BDE0DF7F3D3C0BC5BDEE91FCBDD4EDBD3D6C4B73BD201AEFBBE86D2DBD2A03CF3DA008EF3BEC049EBDFA6AE9BD681FA5BDC06525BCE0B678BC40FDDDBC9E94FDBD5CD888BDF0AB44BDC408F1BDA4E72EBD44AC373D862CBBBD405072BD6AD7BCBD0AAB9CBD3648EF3D06AAC4BDA247C5BD847354BD0042DE3CF8481A3DC6F1983DA09C033D94F867BD5007233CBEC0EEBDE06FB9BB24D04CBD00DDB33A54B292BD50F4233DE498BF3D780FE73D50C609BDD0144A3D0C968D3DE40524BD4088B3BB80CBEABAB84AEABCB8BACBBDECA6773DD2FEB0BD7E8188BD500D2E3D04E93DBD0083B4BD8CAF7ABD6692F0BDCC00F5BDC03886BD600E31BDB0EFB53CB0013C3CD2ACDE3DB849D33D4016C13BF4FBEB3DC83EC0BC1428973D1A5DDF3D6C2ADA3D2A65D63D1CD815BD7019353D6C7FCA3D60E3AB3D8074FD3B705998BC3847DBBD005D333D861FD13DBAF8E83D1037833DA822E3BDE0CFE7BCA847A8BDA4833DBD4CBCDCBD5A3AEC3D32349E3DB43CCABDAEE5ABBD861FD23D303F253D3485723DB04FDCBC7495653D50E60EBD9AEEB6BDF8F28BBCB8D0C03CD2739E3D189589BD20D5B9BCC6D68A3D4E6EB43DA006353CB0D6E93CEC29523D483DF8BD4029CCBBACB3CB3D4E0FF23DBE24AEBD3235873D141A923D049C3F3D582657BD5845CF3C2874AEBC048A3F3D5896E3BC026F983D0C45B2BD6E4CC23D001191BB4895763D982C7D3D9C0F8FBD90142EBDCC901F3DB01A3ABDF692823D808CB43D2232FDBD66B7C53DC41D1EBD005EE0390CA2513D3865BA3CECF1BEBD2EBD80BDF0F64D3DE8EE973CF0D6383C8073A5BD3853B5BC002786BB3620A23D9A46D03D3C76143D7EDDB03DD62BE33D3CC78BBD82E4863D8C4AC3BD1633ECBD247EAC3D1C0A583D00BAF73ABAD08C3D9A0981BDA6E7EABDA092E73B9CC1BE3D0640C8BDC4A819BDACE1BEBDBE60BABD645F76BD745B85BD943DBF3D223788BD9C0C7B3D90BBE3BCFCA4ECBDBC45003D78409EBCB03B123D8CA1ADBDC05B57BDDAC8E4BD4CD7A63D005C74BC7A008DBDACAB68BDE053EDBCC00D40BDA876833DBCC4B2BDC04427BDFEADD4BD7C21CD3DC0407E3C58EDFCBDA4CF1F3D1276A93DA8A95EBDE44486BD645BC8BD1E05FBBDDCC34EBD6CCB26BD60A6B0BDD018D4BC0070753A4640D43DA0AB933B8E8FCC3DB8A0AF3C20913A3DE0EB74BC74104D3D407CDF3C8863F2BDDCE2453D008174BCCACBFDBDD6FBE03D24BCA2BD1A8CA73DDC32533DD273CCBDF813AC3DB4E435BD24A0463D9E0696BD4C98CB3DCC5B08BD981E99BC7C24B4BDF40D4E3DA02A813DC8FBDA3CDCC5EC3D5A92D1BD569ADF3D34DAD8BD1A97E8BD5E04A8BD542CF0BD18E3B23CC49D06BD1EA8E7BD28E755BD1C89FCBD40F42D3DE01495BC384E8FBDACE9C03DD03F0DBC286E61BDA06D3D3CDEB28FBDA8723E3DD258CEBDC091353B1E6FF6BD5C4E793D3C6245BDCED19BBDC09A99BBA656D63DF02FADBC3203C4BDAA83EFBD9057CCBD80BEFF3B5002BA3D988B06BD26E6BBBDB032923C00D03ABBD45F5ABD20959FBC24B8A63D2830A63D68CC843CB4207D3DB831DABC8A5FC33DA43831BDB6E2D13DE6EBCABDC074093D5C67DFBD004CBE3A547790BD4289BABD94F35A3DB86EC63D206D893B6827BD3D5CA4FF3D329F803DAAD4C53D0CCCA4BD80CA533BD09C83BD4CE39ABD00B5463D2A9AF83DAC34DFBD3C048EBD1805E83C34F5F6BD68A2C3BDEECEA53D008ACC39F8F6BB3C604AEE3B245420BD0E28C03DC0DC913DA009FA3D60E76C3D506724BC78A555BDB2C0CC3D00D0B4BAD0216FBC585F183D00A1C33B02FDCE3DA05B44BD8843343DDC40773DF8548EBD348B22BD28114DBD7E2F98BDECA695BDB0DDB13DB8738A3DA03B5D3CEC26AFBDD01CDDBC746BDCBDBAF5843D0885933C1CBF4EBD66EBFD3DAEB9EFBD50DE603C80357E3C705D85BD3260D3BDD8BB9C3C8091163B3887673D8CBE3DBD065CD83D1AA6CB3D78218C3D8011BC3CAC05323D00B756BAE868BB3D1C90D43D00527EBBA05BB3BBF07781BD3C02193DF815DF3C20A2C93CB00CA83C584660BD0C3011BDEA2CC83D100CF93D90F5933C80FDA93A2003C2BCC088FE3BC6A3BB3DEAF5F13DB2A1D2BD94E7F9BDE676DCBD38D64E3DC038493BC0B7C7BC407792BBCCC3AFBD78F37EBD840105BD5EA9E93D244F96BD7625BABDFAC497BD00ED3EBDAA52F2BD725F86BD2C50C23D6657F1BD549B45BDC07C1DBC704F313C661EAFBD24AFD23D1044F33C5088D93C408AF3BB38CDB53D7E4EEBBDA2FAD9BD00C57C3B2E9988BD20EE2D3CD0DAB0BC624FFEBD848FB1BDECB80D3D80C858BD14A4DABD002C22BD48DCFEBDFC43823DD07F063D705AF43CC873593D4CD05B3DE034A8BCB8FD203D162091BDC659D9BD789551BDA8D2BDBC68A2FDBC1CCD8CBD7A23E53D6EFB9B3D5C6F443DD0E2A53CB453C83DC01E013C18B57CBD18E0C73DA46E173D96C39FBD40D3D23BC0F36B3B78691BBDACECFABDD8CC4E3D82DDB1BD667FE0BD547879BD5C75B03DC833ECBD808B83BCA4DD34BD70455A3C30EBA93C70971C3DD01E743DAE29D7BDB80A70BDCC459EBD288D5A3D802BDE3AA828F8BDEE67BA3D22FEB2BD0878DDBC20742CBD8494003D18D3AA3C0E57B1BDC817F4BDAE4A833DB29584BD60D2A93C3C5900BD043D423D1CBF44BD58D3123DB0CFC33D92E1AEBDACF4833D244CB43D4C73973DC04BF8BB5A82B5BD6069FFBD7E09E4BD609B0A3DE047C9BB3256C8BD90E2F3BC10307C3DD00D08BC5276E0BD8835B4BC6A4B9FBD38972ABD345ED33D2001B93D00CC5F3BA087093DC082F53C9439BF3DD0416F3D64C0BABDE4D705BD4C31DABD7CADA2BD1AE6FABDC48D6EBD66D5F43D82DBAA3D5E8A91BD1889D83C626F90BD6A75E93DC471063DEE79D1BDA09C64BC92389CBD1CC5253D2802ADBD821FE53D5E6A9C3D88AEBB3DEE9B9B3D60DBF6BC58BD363DE4EAAD3DDA8ED2BD746CF9BD6C16463DCAAEBA3DE655A7BD687A93BDE010BEBB6097D23C1CA480BD204870BCBE51EEBD065EF53D50EDF6BD8005C2BB3ADD9F3DF0D96F3CDC0F4E3D301E34BDB63AB6BDF0025ABDE294C23D184DF1BC9AEFFC3D140865BDE03AA33D58C5813D4074D9BD1CFA783D2A05FABD8CC00DBD6445A0BD7CCA0DBD5C94E8BDE819173D487D3C3DB0F719BC309311BC84F5B63D7200F1BD8075EC3C10943E3D901AA83C90F0F23CBE80FCBDB4EA13BDA0F6A33D388C393DF06B043C00A092B8FE5D903D982FBD3D42A4893DEC97763D90C5FABC5E97A73DA0CFB23B60402EBD903D9E3C36B0A3BD5C408C3D8E2894BD04CCC9BD3064DCBCB0B16FBDBCECB73D086A763D42FDC73D8817C3BDF4F20DBDCC8D543D54EF113D347837BD1C8C153D5890A33C005510BC3C4F543DF897D8BD164FD43D86F4983DA065243CAC23E23DCC13F4BD3AD6BDBDF6BBF63D3AD5E23DE2419C3DCCDE9D3DE4E95BBDC0E474BC3021513D583863BDEC4D2ABDC24CD93D20F51EBCD0E418BDB8248EBC1EDEF8BD3C1569BD6CBA09BD60B73E3C00E63BBA7CE8DABDE8043F3DF04C893DB0786D3D0064F33DA00CD43CBAE19C3D80C93BBCC8C5463D00C4153B78E245BDA0ADDEBDD2E9D53DEA78A43DBC6B123DC01FF53D7C6424BD788B73BDACA16D3D2814F73D729C9C3D2C91103D28B6F13C5A33BABDA021A13C44771F3D68FCA2BD445B783DFC487B3DB87F403D70D7F13CA088A0BDB8831A3D202BD33BAED0F3BDE052403D4092A13D800F08BCE846D5BDFEA0C93D361EFC3DC695913D7A75F6BD223DB03DBE0DD83DA06AA33B84CBF6BD40004B3BFC6D083D2A20903DB8D4B03CA0105F3D800E6FBD209FC1BC40B3E53BA01A10BC3C27E93D36E6EABDFE359CBD30FD133DB807F93DF8EFEDBCC2D4D4BDC820E3BCC09817BDCC9E303DE06893BB3A43D7BDECCDFF3D1C3B4FBDECB1EB3DB83F79BD541B073D9AB2913D30CC04BDF0CEE03C30A08CBCF8597F3D3E99E23D30A83D3D4A5184BD9264AA3D52E18E3DDABE94BDEE0CFBBD3C010D3D9E6D923D203FAC3D0C52FDBDD8C8A43C40BBA83C90CD453D16438C3DB8858D3CD85398BD2806FABC585AFABCF49E853D80FDC33C40984C3DECB659BD48317EBD5EFDA73DCAD6A3BDDEDF9FBD0082883CDC13443D129683BDB40F5B3DAC2629BD5A98E2BD4A0AD6BD281B523D345582BDA884BA3CA092D9BCAC52B8BD9E63DC3D0CF43D3DB6C4ECBD0058B338D87EAC3CCE4AED3DC0106CBC007C013B6041F33D40182F3D82E4A6BD806BC1BC0C84883DAE0FA8BDEA2195BD04D9D93DA4FE383D4204EB3D082397BD28DFFE3D9897683DC294BB3D286B433DBC581B3D58E938BDE046223C5231DC3D78340A3DCAFEB5BDEAF1F23D848E8F3DE4EFD8BD0E869D3D02A3B0BD3C860BBD42BF8BBDA409C83DF4420BBD025BE33DD42CC73D1840213DF015EB3DD0BC3CBCE0105F3DA063063D2AA6C43DE4E9BABDA016273D2C90B53D92BFF4BD4683803D48397CBDEC60EABDE4ACA03DA0C5BF3CA0CB14BDE222E5BD5444DEBDFAAAC53DA09335BCD0A6F83D800B5F3C0824863D808323BCC47957BD305B8FBD60D4A9BB6A6888BD601B21BDC045C23C08BB5E3D722BCC3D28DBFFBDC02F5E3BBE9EC1BD9825E03D8A13DCBD98AE11BD40F39A3DA8C4B9BD68A0FF3DA85CB8BCB8389F3DB099FBBDE85C41BDC0C5593C34825BBD3266C23DC8AC7CBDB875A43C28ACF9BD607E5D3D30F278BC4231B03D2CDD5D3D4485A83D004AE0BBA03AEB3BB4E7E0BD10AF943D7CB8393D188C96BD306DEE3CACAC6DBD86BCBC3D809B32BC90DAE6BD6052C1BDE4F550BDD020D43C68B0803C5C30E5BDA8138FBD30D6C4BC6EEACFBD007A243D88B1003DD023853CCA7983BD0468EDBD6E11F6BD182EB63C1C22513DE0D131BDD81CE13DA8310C3D10F016BDA0C4DFBD789530BD1400B4BDEC08CEBD401058BD"> : tensor<64x64xf32>
    %cst_3 = arith.constant dense<[0.0516121238, 3.478840e-03, 0.00854082405, -0.0682616234, -0.00750024616, 0.0645427555, 0.0928412527, 0.0794826895, 0.117782503, 0.00803291797, 0.0426883399, 0.0209881663, -0.0514581203, -0.0438593179, 0.0325730741, -0.0024741292, -0.113686234, 0.065457359, 0.0384015292, 0.0947496742, 0.0356156379, 0.118064761, -0.0858991444, 0.0924027264, 0.122233436, -0.0595259219, 0.0791756362, 0.0847260505, 0.101605877, -0.0929346532, 0.0762362629, 0.05394122, 0.0336919576, -0.0181783587, -0.120160729, 0.0354547054, -0.0685999393, -0.0890382379, -3.55809927E-4, -0.117070273, -0.075274393, 0.0761909038, 0.0112059116, -0.0545725077, 0.0584816635, 0.0916970521, -0.0321564674, 0.068768695, -0.0757167339, 0.0768095255, -0.0625668913, 7.091670e-02, 0.0921701342, 0.123168305, 0.0326463282, -0.0302986354, 0.00992110371, -0.0881534516, -0.121710092, 0.10525687, 0.098974049, -0.0392850339, -0.117971599, 0.0056425184]> : tensor<64xf32>
    %cst_4 = arith.constant dense<"0x2412693D747382BDE025E03D9632883D503EAB3C00A8693BC83723BDCA0D8EBD026EDBBD4069C6BBD03C1FBC16B4EE3DBA94C63DBE9EDABDF0FF8D3C005406B94671B13DD8EF28BDA876B03D367BE0BD2C40F83DE0AA83BBEA22AFBD50F128BDBA9BCDBD7A14BD3D3C70973DC81B6E3DA86F973CCCE9F6BD189A73BD68064B3DE43BEDBDE033E8BDF87CE6BDA4DA153DC045F5BD0C5244BD4C4911BDA4C9D53D68F874BD78E7983C9C0C01BD4059463B009556BB3E2283BD960BC13D38AF963D34102DBDE0B6C13B64E54EBD40AC5A3B40EAD33CA475FD3D4669ECBD08C5873D783CEABC169A82BDFCF08E3DBCD1DE3D604AF23D60C6E33C1CF2AB3D48E19CBC981C70BD80D341BD303E33BC0EBE983DE0A4663C163C80BDA016BC3D54B39EBD62DCD73D74EFC43DE05EFD3D508B563CE0BC0FBDD0E01CBCB4E1273DCE50963DA651B9BD261EF83D42E19F3DEC4B5FBD5621DABDE672DFBDA08D193D388D143D208625BCCC6C65BDEACCFDBD40F5A2BC5014393CFE0E81BD1E26A8BDD05F58BC620183BD1ABFF1BDACCF4C3D5C79693DA2C8D13DA05371BD803A88BC20767EBC58112EBD5803E93CCEF4B63D9CEE4E3D982789BCE4A2913DAC70E4BD36ADFA3DCCC74ABD52C8A0BD2A0FAB3DB8E3D03D805C8B3C60A39FBDB467643DB8A0223D00BB573C984C1CBD6ACFF83D94E014BD0061343C3038063CA0270DBC4473613D56FAE3BD60870C3D6609AF3D86C3D63DCC3DC1BD4C07403DB097D5BCD0E4CCBCCC0C60BD203A99BD0027973C4615A33D405D03BB10B261BC8CE7373D5030F4BD4CB59E3DE48306BD90B85BBCA8EECBBD50068FBD7690B33DB0647B3DC8188E3C1403F4BDA454AC3DB477F8BDEC878D3DEC0FCC3DC863C1BDA4D4153DD47D96BD965CAD3D989F97BC5003E13CA8BDB1BCACE48D3DECFD4FBDE0C623BC30CB85BD602E80BBD0AE6D3CD455983D7059163DE81A663D1067AB3DE050BABB8E5EF8BD7E878B3DF06E21BD3CB6D3BD3C33C83DE40F5FBD74F67F3D64B4383D304469BCC033533D205843BD10E4FDBC7A9097BD32E5A3BD12B7F03D92649BBD8CAA7E3DA8FF3BBD1C9498BD1E3AAF3DA45B7D3D8443043DE8AB3A3D3CFEF0BD002480BAC8F4A13D0C2E64BD2491443DEC6D71BD9A68EEBDF09461BC841F413DD2D0E6BD6ABFD93DE628A5BD06D391BDD081A33C04BDFDBD7263DA3D8062FA3B28E6323D50A7083C908264BC583983BC4271EBBD0061FD3C808555BDA2BAD0BDE2CEA23D00EAA53CB087C4BC1CE3B13DD43661BD40A5E8BBF83EE93C4649C9BD600F76BD9CA97CBDF421CB3D2656D03D00CD9FBA602F01BDA82F84BC6884213D1072B33DA8A65C3D5C499B3DDE37ECBD36E286BD80ACAF3DE6E3BA3D78FD123D2871B1BDC2EA9E3D2AF6A6BDD6F7F7BD6472BA3DB2F9A9BD6866313D68AEF73DF82BE53D0070E939444D33BDF294E03D9031703D700CC6BD00D20B3D3CF8543DB067823DCCA422BD30E3ED3CEAC6BEBD84EA60BDFAC7B53D10330DBCB22EF33DEC5AEF3DB0A4D2BC441BBA3D008E1E3AD23787BD842AA4BDE2FAD0BD005506BB984F213D285461BD2C516BBD700F6B3D88E524BD985EBA3DDE46E6BD207E94BC687B153D20352F3C8041063C00C091BD0014093DDC0EEABDE843DBBC7209EC3D78CC17BD18257D3D243690BD8084003BC6F6A73D16D3CEBDA8661D3D6E39EA3D508D5E3D4843FDBC4621853D90361BBD6C605F3D50612EBC600BD33C382CA23C84C5333D2064A63B10C572BD68F20ABD5EDEC5BD00A37FBB72F8C83D88700EBDE0F202BD00993EBA32E8B73D7824E0BDE0F53ABD1C456E3DA0E85C3C306B3BBDF84A15BDCA608FBDD0E3253C702B4ABDA048E23CBEB8D33D325CBEBDC0F1EBBBBA73D33D30302DBD7899763D586CC8BD4CF21D3D66D2983DD09A1F3DAADA833DF0796CBD3C31203D30F3DBBCE864493D3093473DB0F11DBD3681B4BD80F530BD8C8121BD626DEC3D5004243D14877D3D388C67BD4426E23D70CC96BCF831FDBD4EF6A23D58FF1F3D0E23BF3D6477CABDDCFF9ABD9006943D3C61683D888AB33CD46E66BDC253ACBDC07D83BD3EFE893D9682AF3D78C04A3DBCECE43DC0C0C9BBFC0851BD5012A53CC4D464BD5C2BC2BDC0C9DFBC00E07DBA003DB83D920A80BD80FE403BA8E26C3D0053143C804F293D842646BD2053F03BF49E99BD14A9B9BDEE03DF3D104AE93D785F07BDF4BF103DE06CB73D00F387BC380A443DEE06F3BDD8718C3C80EC9EBCA0F9573CE0F4123DA037A03CA81FA13C8031DE3BD435053D184129BD4604FCBDE88ACFBD7485433D509D13BCE478E33DDC85163D0022F0B9A8B9D73C7261EF3D4C50AB3D3291E5BD6C4241BDF022AC3CF04D7EBC28F0CC3D60CC88BBA09BB33B60DAF0BCA248CFBDC817AFBCA4474CBD98E3D0BD48F24B3D848AD3BD4E65E73D14D4513D8059D73AD83FECBCB623C93D823D9BBDD82808BD0465173D0460E93DC0C1C13C48144A3DF0715CBCE82164BD74B3CF3D30F4403C28ECF93CE0BD513C0022C2BB185E30BD78A6E73CDAD0A63D3078963C082288BDA8413E3D843F833DEA63C5BD38821C3D807B8ABC8881E5BCFC111BBD30FB5A3DCAC8BCBD107E7F3C38C3E33CDC5A5CBD94FB1D3D4498AABD9401873DC05E773BACC4E93DB02F993DFE36D13D40105CBD2872FDBD9E2EC03D8A27ADBD445CEB3DCCE9F63D00EC0F39B461553D604C4D3C60F2FFBD94CA3DBD8EF5EA3DE0A7B33C28ABD2BDB82E1B3D70D3DABDE0EB95BD3C832BBD80D23EBD9CB0EEBD8415D1BD1E4CC93D105286BDA054E23C9CC5A1BDF250D6BD9086CFBD0EDEA5BD20980BBDE0F6B8BBEE29F5BDBC84283D40B60CBDDC31F43D4C0DE6BDC838FCBC5843FE3CA8C11ABDFE11D93D1CDAF1BD2040D73BDA399BBDA4C2B53DFC5A323D7AB7AFBD2AF1FBBDBAFCE33DE893C5BDC2B0DA3D882C813D50C8DABC668DD23D00ABE23DD8243EBD68D95B3D12CEB63D2022A13C682B26BD4EB4E43D50A833BC468F93BD1C133ABD9280B0BD741E523D203CA9BB20B0123CC03F6EBCB0E64FBC6820813CF0BC8F3C20D3A1BBB60B81BD6C7BBB3D90DE8F3CF0B1FBBD0CBE1ABD5A75E3BD0A8EDCBDA0F2853DA69DBA3D50B5AF3D2286CE3D687BE53C400922BBAE2FA6BD24350DBD54BB36BDC02EA33CE60D83BD281ABABD9EFFD9BDEC824F3D044585BDDCBD73BD8EB2C13DB8CAA3BC6E7FA63D8076A8BB9213863D2CCF463D00EECD39A0E65DBDA6F1A83D12DC873DA0E02FBD281DCB3D243AB43D2820CBBCD28BA2BDFCB935BD94BE79BD00DC573A68DA0D3DA8EEE13CF01F01BDC01E753D304909BC3260C7BDF696E4BD78FF8A3D0CAC0FBDE87BB2BC2843ADBC8030A03DC80AF3BCD47A9B3D24F534BDD8A0A13D62D7A4BDD003643CFED8DC3D4631DA3DF28D88BD4083B03CC085093D00A431BC9846F03D44EBAF3D3C1E533D70A524BDD64A9FBDA0C6A9BB0048E638B09623BCC0E90DBDC0E8763B3A7AABBDA0A89FBC68795F3DACADF23D36E9A8BD223EB53D60C0FA3BCEE6943D409B6BBC5047E93D200BA1BD5876F5BCE48E1F3D3C5EA23DD472BD3DE0DDD1BB00B2B23B0A1DC7BD04984EBD0079953C92308B3D3871E2BC6E1DBC3DD4C983BDEAE2E5BDB8EB253DF031923D3291C0BD6C0B34BDF877943C0835B43C846DB13D100F483D1CD1DC3DC0716FBBF4B5893D06D8DC3D8CA9DB3D5C28A93D14ED7BBDDCED16BDEC548B3D7C0AA5BD54FB4B3DC095673C4887CDBD9C934BBD9C070C3D60B8C83D4092C83C3840A5BCAAD884BD801069BBEC28033DFC80A13D4044973B8EEEF4BDBAA6A4BDC011943DAE119F3DDC6510BD5EA592BD12EF993D08CB883D5E95F6BDE068DC3C7AB4873D0842C1BD00FCF93C649D82BDFE8FFE3D5067E33DD8BA8B3DAE71FD3D72848D3DF01CC73C5A59B53DF04B5C3C14B15CBD70AA5A3C805D563CE495D53D28E070BD24475CBD2087F73D06A8AC3D4C59173D50D16B3DAC937C3D24E4BB3D7A3BB3BDB4FFF0BD580B05BDF4121ABDA8E30DBD0815BBBD80C488BB40E855BB108E6F3CC4B354BDF0528E3D7CCC683DAC27093D34E595BD5C849FBD386801BDB09C0CBDE0718A3DA039E8BC102E253DC0AAA2BCFCDFEE3D18A911BD5E18E03D2811FF3C4E96C13D6CF335BDEC4374BDC0B6983D9C279DBD543B013DA29D8BBD800F3BBB70CC24BC20CFA3BDA6BFB8BD888D713D40B323BC067AC23D929BB5BD0C9C10BD08A1A53C4029053DC226F33D30F4E3BDD0D3593D6E90B83D008279BA709994BDC02BA93DC849E03D440730BD506016BCF0D1183C503AC83D6825FCBD6E6B9FBD1463D8BD8C5521BD9410B63DEC2DCD3D000D1A3C608CE53DB019C13D9CA86FBDD8657EBD50A53BBD381EB23DD0C1DE3C2667A53D24B8C6BD68E46A3D8C51723D0276AABDC069933BA89D873D28DEA1BC183B1FBD5CB214BD102792BC00D70BBD1CB0953DF4125F3DC427B53D18BF4C3D4619B9BDBC5487BDE8C4873CAAFA913DD8BC35BD78A8A3BD40603FBD74F84FBD9CD623BD7073C03D8AC6C13D1404BA3D34E96B3D8626A9BD083C69BDE082E33CE0EBD0BC6E718CBD6020F83DC86E4BBD6052E73B90B32FBD26CFF53D1CD2553DFA36FA3DB8D2313DDCD8FBBDAA5DF4BD34C587BD2091903DF2D3ABBD80ADA6BA0A13BE3D20CD89BC3E2BA23D82E7A5BD24873ABDC4622A3D905EF8BD10DA733D10D7C3BCD829CF3D84DB1B3D80F3D33A98ED773D9EE49CBDCAB8963D60EFE6BB72F2D9BD84BE82BDC6FCCEBD2A4AA03DDEF1E93DD05E9C3CE4EA843D5003DB3C20E3D03CF8C7833C7CDBC73D30EB34BD48CBC93D92BDEC3D3ECAC93DC43308BD402B15BD40F255BD649BE9BD8492913DF45B7C3DC2069F3D288AB2BD541F963D6067F63C78A58CBD605792BB7C25B2BD2407C9BD5E2ED1BD787DF0BC283536BDF88B933DBAA4BE3DF2F5CDBDC01BB03CB4E90EBD886E263DA0D8AC3B40000ABD9AFA9DBD209E0C3DAA24B73D56F9A8BDA0CD5CBCEA139DBD2C4534BDCC358B3DD0CFE9BDB037DBBCB8F3C7BCE85D85BDB0BAC53CB8981CBDCCF5943D72D6CFBD60C748BDD08ADBBCC651C0BD2EDB933D3CE9E13D64A02F3DFA8DB23D640DCDBD988B64BD107AED3DAEE6B2BD7014A13D6E35B43D2EB1C3BDAEF8E23DA05D07BDF433FCBDACF1D53D6020EA3B50ECF0BC26E0DFBDE022023D062C973DD0C7A3BD2066233DE0C34E3D00D57DBC84719F3D743611BDE062C43DB0D6EABD16ECA83D50E1D8BDE89EDBBC302EABBD94E4B2BDEEC49F3D14F5813DE8AEC83C3A58883D30FCB5BD8A3AC2BD700453BC903156BCE02DBCBCD83190BC2C6D3EBD503514BD5661F1BD00A56CBC4C2D1C3D00FABABDE0EF483C34BF7EBD56F091BDCA26EE3D5006543CF40F41BD405946BB0013813D005DE73DA6C381BD80888CBC2AF7BA3DE8D23A3DD0DF793D30C55E3D56CBB8BD607254BCF83AE03D1415AD3DC699B1BD980CFB3D8E71E4BD7C930B3D14E1B73D8EFBDDBDE85BD9BDE4C579BD78D308BDC0AF313C207875BCE4D78FBDE08D023DCE3AC13D9053B9BDFE86FEBDDC5BBEBDF0E633BC00A0EDBDD07995BD9A83E93D8086F3BB44E8CF3DD098733D409695BD52DAC53D7EE0DB3DDA33C93D5A44FF3D4EC8AC3DC0106B3CF288973D8EECE73D58D5A13CB0D100BC6091BF3C786D96BCF236DF3DC8EE813C6A7EA7BD5829453D900F15BCAE1FBFBDC4337D3DF6E0CDBD6438EFBDF06D57BDC4B6403D04B5EC3DF4D4F73D3683BF3D2CFCDBBD9A4FFDBD40A526BC6620FF3DAC009DBDECC4523D8C5741BD5C12FBBD0C0D97BDD47692BDA2A2FB3DE840B73CF04C493CCE6BFD3D080CD1BD8058C0BC4040B33B402554BBE27AA63DE481A13DE2F6F13D30AD8F3DD0B263BD0CC5AF3DF03D2EBC34E3623D0A91F33D209E4E3D84EEF8BD80566E3DACA72ABD9037FD3CF0682CBC34D4373D38ABFD3D5497243DD8EFDF3C28DE55BD3092A1BD18515ABDACCE81BD5C8ABABD643BC13D0083ED3C4ED0F0BD9E91CCBD506B04BCA041AABC2014CA3C8EB6A2BD98652BBD3224E13D14F2B5BD34CCB5BD5EEBA33D9E7EE63DCE37913DE2709B3D72E4D2BD78C7F3BC90F127BCF022583D4CEE433D0024233AB09C6C3C30B7273D38BB63BD2A82813D02CAEEBD0A3CC03D8A45A03D0886D9BDC087DEBB4C295B3DD406FFBDD0B3B8BD606754BDF8D8153DBA4A9BBDF4195ABD6891CF3D3465DFBDB28DB93D3826F3BC6611A93D181E1FBD18B695BC7435503D3ECFABBDF207D4BDA46D243DF66BB83DB0FCE33CC07767BDA0BF97BD54C75CBDA0903F3DAC79E8BD7895ED3C24EFDE3DC06F6C3CA87DAABC822093BDAA6F81BD7C3D09BD40A6113B14CCC73DF078A0BCCE35C9BD18B9473D7445303D9A858CBD4861C1BC94CC76BD9EFDCCBD4EA0F63D08F4B3BD0CD2593DF86509BD8C50363D102E05BC8E4CA53DE097003CC00368BB04312DBDC845F13DFE83883D68157C3D7EEDDC3D206C20BD881B573D56188A3DA080243CE628F2BDC07422BD4E28BC3D4C96C93D100F693D7A00CBBD4245DC3D0A8B93BDD0AEF43C547E38BD9A4C9EBD822A8CBD58EBF7BD7E69BFBD9E41BEBD608CE8BD641DBB3DF4CA72BD561CF2BDF093CEBCAC7B02BDD8E1F4BD7CDCB53D8C2851BDE062853D3EFBCC3DC8ED023D34595A3DC06CE63CEA3C93BDD8D8C3BD2007783CA0B011BD844D87BDECE2FE3DD2099B3D12E1E2BDE0AA4D3C5CE36FBD58BAF0BDF217BCBD74FD093D0839B9BC1249BFBDD02CA23C305CBDBDE41FCE3D80339E3D22629E3DCA37FA3DBC9A91BD207D5BBC985EF93CA23AF0BD98F1A8BC20EE2E3CE0000FBC0EC2F13DB01A82BDA60BCEBD58441CBD3492DD3D9093D93D082B873CC4A8AE3D10F92FBC141247BD0070DA3DFCE1373DC819B6BD54158ABD00DFC2BC1CEA983D949E1CBDAC074C3D60BB43BC2AF2A33DD48EA1BD48FDEB3C4850BE3D308C31BCE0C0013CC89E2C3DDE3CC5BD4C9C3BBDD612BB3DB898833C30363ABC2E15DCBD14D77DBD3848D23D202822BD64BB1D3D0AC1B6BD40B1503D40E3A1BD601FEFBD64F7FD3DE2AEEC3D085E22BDD4644EBD0222943DAE80A6BDF80905BD1450483DB0D63FBD5CE8413DE00E63BCC054A9BC5E01DDBD88870F3D80A08F3CBA08A43D383C9EBCB06C023D70D7A63D72C3EA3DA6438E3DE8FD92BCB2208E3DB4284A3D603E6ABDC084C0BB543CBD3DC075E7BBA05C6DBDA890E43CB25DD7BD564EE3BDD80EE63D40E0683D1CDB70BD00B8D3B8D4452CBD329C8B3DC8D166BDF675B03D283428BD086CFF3C84B071BD6C0ADF3DBABFDD3D3C48FEBD60F8723D6ABE953D5C6DF33D3A64BCBDF68FACBD20C4093CA04F98BD008E83BA00FFB9BB08B2E33D805BFFBCB80EDC3DD0C6B23DBCFEE23D700B383DFC9AA8BD1C2719BD2020A93B30DE953CB8545EBDA890B53C58ACD13CD66BFBBD8004283B203FEA3C4255E43DA0209C3BE01FBF3B2C5069BDE023513C9CF217BD580E9C3DA08ECDBD48DC36BDA4AD91BD0427ADBD3468523DC466A0BD2E46C7BD3EF4B7BD881D113D20612D3CBEF89CBD5ACAA0BDFCDBBD3D9C65BCBD1AB489BD80BAD8BB7A38E5BDE0292ABD400E023CAA3ECFBDB84FF63CDAABB23D8082643D00A424B9AC5CFC3DEC1C1FBD9CD802BDDC050B3DB0C8E3BDCAA0E9BD88FD643D1032A0BC309CFFBCA27D833D8008C3BDFAFDC9BD1481483DE83ED73DC8F253BD20B7AABB60B77E3CCC6D653DB85EAABC529FA6BDC01DE33BB6AAB1BDACCE2FBD7C8FE43D004E253B2C3615BD807F373C443A163D369DA1BDA6CFEFBDC040933C9884533DC64B9B3DC07476BBF08D693DCC71213DC8A25F3D7EC58CBD4E15E9BD2EE98D3DF8AB9F3C60BFB1BDD4F83CBD0076D4BA6463D03DD0E5753C3CC7E0BDA043F53D32A1A0BD0455683DD299E63D70831B3C50F07E3C56D5F73DF29EA8BDE4E327BD3C4A1A3D60C50D3DF6A4F33DDA97B0BD0C75773DECE8833DEA94AABD1A90E0BD6C4EEABDD0A8793C608617BC341347BDD821F53CCCFE07BDC0DA563B3E17D2BDEC48D8BD18B9183D308A6A3D2E72DBBDF4AD043D380391BCF45301BD267CF3BDC075B5BDF005F4BD1E44D5BDC0EC203CB80F4DBD846A1CBD00E22D3DC8964CBD400808BB6CC6B43D7C7B663D585DC2BCA40D363DA85D72BDCE2FF03D805A9BBA40B8F7BCBEDD91BD840EC93DAE25953DF848943D484AFBBDFC62BBBD3291D33D06C6BF3DD80E91BC7C26D33DE8DB513DB82C63BDAAC1A63DB261F6BD40EB573DD00CE43CE0C9D8BDEAA1B6BDE459E3BD4AF5C33D0C301ABD10BC8B3D324DE33D604F41BC0E0AACBD04988BBD7EDBB4BD10B9723D6A1EF3BD5CA994BD441E06BD9EEEDD3D0C0E2F3D4EC9A33D5C0440BDDC9760BDB649973D6031E8BD1485B33D08C1A2BD7C7C703D300DBE3DC4D017BD5004CB3CD0E3DCBC7EE9CCBDA84AE33D4C5387BDA68BFE3DAABAC43DBCD2B33D601E4CBC4A52F03D20A8A23BC031AF3BD0F7343DD0AFB53C3CBC4ABDDE6CA3BD40256DBCFCB983BD92D4A73DB8B8D5BC0A388F3DE8C81D3DA6FED3BD6CEF59BD846B5B3D58B484BD7861B1BDAAA4C3BDA045C7BB4038313D1C26D03DC02635BB8016E63BE2E3833D603A213D72ACDEBDE607FCBD2047E2BB3EC1B5BD6CBC823D48804B3D840F1D3DD4EFCBBD66348C3D1860233DFC4021BD6C1557BD787221BDD059F6BCE0A06B3D28F79D3C40722ABB400433BDFE50D7BD1290883D006ECB3A2266ACBD12DFFCBD902117BCDC09743DE448D0BDA01E893DA0DC203D003E86BB98A22F3DEAF9A33D90D25D3D006ACD3AA45D8D3D54843B3D88B8F03C0C89ACBD805B04BB181963BD181F933D5481993D2E8E813D8073FF3C30EC74BD169DF1BD9898E33D40BDD3BB581B843D20BF99BD1CDAD2BD4010A53C3C0D6FBDB647823DA85A8CBD9C44ECBD2658EA3D18F8D93DA467083D087A48BD14EF5CBD0059D33AB050BA3D80B2D1BA623FA63DD0893C3C48FEBABCB621B83D303DD4BD006EF23CACB618BD245CB53D6C10233DBCFE9E3DDE7F8DBDEC2D823D8EECE0BD7C6D643D0002163C0CC9C8BD6C8CE0BD6E4E8ABD6A18BC3DC83FC9BD30E7D3BC204301BC746D9FBD9E59A03D964EBBBD10BB793C5238C0BD1049973D70AE9DBD505333BD4C072D3D82EEF03D004278BCACEE943D601DEE3B2A2092BD00B31ABA941847BD2A85B63DCC7F7BBD381773BDB8D9ECBDAEAAFE3D34334CBD7EB6A33D00BF113D84529F3D7031963DD0AB3FBD801484BC4CA0B03D18E770BD00D449BBC634AE3DCA80DD3DD0937ABC3000233D6C47CA3D545C44BD841941BD26F8BC3DD0B7B4BC306D9D3D80E6AC3B547E953D7C06A73DB4FA253D386E40BDC6649BBD7C94683D0CF5B2BD068DE03D5867CB3CE09218BC0A65C9BDF08E013C6CF8963D1C26803D40233ABC60166D3C50F92E3C02DEE63D70B7ACBC1280CE3DDEAA87BD90C1E8BC0EC2CEBDB01E0FBDE8642CBD30F1D63C22B5B8BD046ACF3D9063D5BC006C5DBBCAF4F5BD3E2BB83D8C17C7BD58ABB9BCF8FB553D14171EBD5E98803DA858B0BD1C7634BD10DD75BD00002ABBAE58E8BD58832B3DF0127ABDA02A8BBB54F9E5BD8EF0EABD0AC0ED3D7230A5BD8089FB3D800F9BBC60F7BA3CB8F8843CA0D2403C6CD8073D74A5DFBD3824D83C5827B6BC8804EDBD14DB68BD14D559BDF088EB3CE034F33B307DD0BDC004C0BCE8B593BC0C2D973D801E71BD6C36FD3DE0875ABDD4F9EEBDEC551CBD4036893DB298E43DC070EABBCAC6FA3D02A8F93D64E3C43DE4BE71BDA26D973D00CA6ABCA0D6313CA8D4F5BDF41F863DEAD6CA3DA0F2B2BBBAAB95BD207DD7BC4078823BA893133D78BA533D788317BDE8845C3D54BAFBBD7EA9C63DA8355FBD2CFA4DBD00EC01B984ECB63D94E54D3D982FE53C3060CABC8016803B54C8C93DB03DA5BDEEB792BD809D3C3BD8D188BDF83FA5BD62C0E23D8C4375BDE496133D64958ABDBC83533DE8B4D73C0058C53C60B6F23B2C725D3D90CB313C00A802BBA0D72F3C80DC50BB9AC8A3BD44A50EBD4ECFF73D509BEB3C60BC2FBD763798BDFEF4E13D8820D03DC8EBDC3C608C0BBDF429C63D0883F83DE0E54E3D60BE8B3BAED7D0BD84A64F3D3C7A7D3D4877A7BDE8EBC5BC000C3139C40EEF3D3E08C53DC037EFBC78A2153DEC8AEFBD248F69BD20B1BEBDE0E67BBC6022F23B70999F3CF41890BDF049903DD04BFABCC687E13DCE19ADBDB463E5BDC08EBB3D70E68FBD2CB1403D2292A73D60D7C23C70D52B3D18BFB6BD7C3D5F3DECD51BBDC0FCA83CA24CDBBD805249BD682C4ABDD03D093DD409763D841C70BD9C5B8CBD407F34BD009AB5BCC04065BBB693C93D90AB93BCDC2032BD5661A4BD6016043C00F37A3AFAD9BF3D70BAB6BCF8FCE7BC04D353BD28ECAABDB8F0223D58BE94BDB4B12E3DD084E43DB86C323D6AA7ADBDA888F8BCA42F7CBD8CCF2EBD64426FBD884BAFBC2C154EBDA0829E3DFA6DCD3DD8BADE3C60499B3D6C54B6BD1833843D18BAC23C180090BD142BDF3D4CB59E3D7A0E8BBDF044A8BC60AB86BC064383BD9452B5BD682DDBBDFE4EE6BD602384BD34144DBD3056C53C4003BA3C84BC1EBD58190ABD2C7E8EBDB047823D80F2F0BC1810A53DD86E3FBDB0898A3D8A6FE6BDD05CAFBDDCCFC8BDB48045BDEEF9EDBD4E41953DA815BEBD9EFCA73DAC4647BDCCC96BBDB046E9BC008CAC3C101176BD802D313D00F857BBF068C0BDA0FEBEBC10ED1D3C3AD5913DE47AE13D38E3DE3CE81ECB3C4690EABDD627CFBD0099753A18F6D0BD803C743B8856A6BC6C5596BD48E79BBCD8CCDEBCF0C77EBC707EB43C0C966FBDDAF1843DE0860EBDBCCD8D3D5C20D4BD9C5A863DC0E0A9BC180DFA3CE057953D7E5DF33DF08897BCF06D9FBD40883E3BE8438C3D3CF322BDB05D7B3CBCDDE5BDB4BE103DF29EA73D040C853D000049385068D4BC26EAA83D986EF3BDE072D03D70D6FD3CF6E2E9BDB4DA79BD2C67B2BD1AE89F3D288676BDC027D03C80C9633D70814CBC188A88BC1CA71E3D2244CEBD8831CEBCE03B433D44421EBD20008A3B802D01BD08D4F83D16118ABD3889FA3DAC748EBD7231843DC055063C4A13BB3DA424EEBDC07C883BEE3EAE3D8095B2BD444B583D002F02BBB07353BCA07D503CF80B913C20B7E7BD7AEBC0BD7A25A4BD4EE6DC3DE4EBC8BD3E2C95BDC4ECCD3D967AD03D486CA1BC60D7DE3C7096C23D00F4773DA02EDC3D4C2AC1BD0000F33B7EDBF03D18F4823CDED5C53D12E9CC3D6277E0BDE0909FBDE0FEB4BD92649BBD249DB3BD00A488BB3026CABD46A5F2BDB444173D18BF96BCC05B543B38091E3D68C5BB3C88C9FDBD40B3C83D40319CBC487BC4BDD4A84B3D1883D5BD768CE1BD7A0FAC3D845DC7BD046EFCBD6AABFA3D9C5C6DBDF482B93D283D8A3CE0DA9E3DDA1AC3BDF6F2923D5296863D06758DBDE041DBBC8CC4F6BD2ADB8ABD862CACBD7CE59ABDB882773D4AA7BC3D7AABA03D70DA80BDAE80F1BD0CC0D63DE0E1ACBDD04C1B3D900B2CBCA091363CB06DAB3DE0C43ABDB07B7EBD167D873DE83FAB3C66E490BD2037D8BDBE09EEBD444B3C3D80B10DBBD04D2F3CE88E5ABD1A10AEBD8630D73D7C9CE2BDB85FAB3D68F1A7BC6C9377BD206250BCD4E247BD3A54E23DB0B5163CF685F6BD4461C43D9EE7AEBD2436AC3D82ACCF3D405FC3BDF048DA3D98B8033D747BCABD30B9303CEC7EB73DE06AEFBBEE8685BD48A344BD082F183D4A66AA3DAEA399BDBCA9F7BD00EB9E3C380CEB3DC08BD5BD84775FBDFCD17A3D801AADBA389D4D3D6813ADBDB03907BCD07F1EBC9ED6AEBDE8DC9BBC043A473D148EEDBD645A03BDE039FBBB202FB6BDE0FC8B3BE4D493BD7C0B8FBD10F5FABCA0D5193CA82AC03C7892C53C30B3073D5A8BCEBD402975BB6287E1BD7C59073D848DF9BD40249ABC30A708BD34FAD1BD2684FF3D8C57DD3DA806D13C78B5953D343E3B3D140302BD002E633C7CA685BD82B7C93DB467343D1C6E0F3D0023793D4229C3BD8284C33D88B3913CE0E7C43B840A393D447F8EBD107ED5BDF8FFA73DF4EBD9BD804DA2BCA071273C981B1C3DA46AFEBD281BAD3DA41B83BDEC7B13BDB03D18BD666DB6BD70202FBDA42C653D6E83E9BD084F923C9CDE813DB629E23D169F81BDBEC1E2BD98BB35BD98B3E7BC0203963D9C45B3BD7664F63D7C4FD13D204C38BDB085B13D2EE5ECBD4CA1833DE4A87D3DC07D543D7C48563DF487F9BD489D23BD6807E9BD7060823DDA6B883D4444DD3DC8EC18BD80366CBD6EA6AEBD0066AABD6C720FBD60510DBC9844C5BC9402573D6C28F23DBEB2B03D4C7A093D58ED85BC40E5DBBC002BCF3AEAD7803D90F51ABD6867633DE4C3733DD675C6BDB247EFBD040D4D3DC02128BC68E1553DDAC7C1BD9C83F7BDBCE83F3D4C2EA03D086BB7BCE27F96BDA44BE83D2C6A1F3D2E83C9BD4EBADD3D6CF33C3D20B67DBC1A05B1BD3E3DD73D76CAF93D107B70BDAEB0D13DD4AFA7BDFEC8A13D086B4ABD0AB9C63D3EF4E0BDC2A5B13D02D2B33D86E1FCBD0621ECBD80287C3C96ACFB3D10BC6CBC96F2EC3DF008CE3CA88CEDBC4065F53C2869E3BDEED1A3BD6CA2E4BD84B0523D7619A3BDF64A883D247E903DD0D272BDCE21D3BD5019B03D3685F8BD68732D3DE059A63C40779C3BC09A08BB708C1E3CB4E18F3DCCCCD73D0000F4BACE8F81BD6016293C0A65A5BD0418FF3D2819873D7E12F63DC04E5B3DA260E1BD646FD23D685102BDA042773D28F1EC3C9863CB3DF254DFBD6220A03D3A1EF7BD5A3B853D08F2F6BD184381BC18FE71BDB02D18BC923FB6BD6CC4F1BD604BB73D36AFC73D04C963BDC0AECE3C5CCCE33D9018EBBD1AEA9FBDF06E3DBD18B87B3D00BD893AE0F96BBC68859ABD80D665BDC0BFEFBC60A2FABD98FD9DBC84C8DFBD5857E83C149B3BBD64DEFCBD58B868BD602E8A3B5C3A58BD60BE6CBD880DB3BC6804E2BD8C35123D5C964B3DFAD8E73D80989DBBB86021BD281F363DC680E6BDF417E43D2CB6463D1CD1D8BD7CDF5D3DBC7147BD009AE1BB1E0BB03D044BE93DE0FA903D3E18923D689CE3BDC2B99C3D84978CBDA0B3693CBE168F3D9CD4ABBDA6CBEA3D6E91CDBD70E0C8BDA4C5B3BDD4A564BD70B3653DB47C11BD38B9673D0E20D0BD982A4FBD204E253D64B080BD149AEC3D6C2D383D18E4F2BCA80BC13DB66783BDE8F224BD809CDCBB7883BF3C9031C3BD3AC3EE3D102090BD9037BCBCC494983D66ADD53DD8EFA8BCA0A23DBC18B4603D64E08ABDB60CFA3D20F0B1BD887886BC44DBADBDA4CB323D80C5633D5C94953D4C4344BD94F1263D90E6D7BD409D3EBBF8C8CDBD18CBD2BCA81DCE3D54AB9C3D50881FBC08B27A3D54332B3D7203CD3D18C99FBD7607963DFC8EBA3D729AFA3DCEAEE23D7CCB8CBD547046BDB864A73D28C0683DB6C481BDB837CFBC00E0AEBC6E0F94BDC243A53DB2AE9FBD20C4FCBD18D9BABC626DCDBD8026423C70E8D93C6A25CCBDCA999BBD80CD0C3B4EBAD1BD5081B73C60C7D7BD005394BC0294ECBD7E159E3D903B603DDC6A8FBDE81D11BD6832843DE01EA33B28637ABDE0DF413CB614903D64170CBDE4EAC0BDEC4356BDE0440BBC38B1883D98882CBD5656F23DDACBC13D58F3DCBCD8B8833D805AF3BBEC17CD3DC06BEDBC2240CB3DD89F243D689879BD141E023D8C43CBBD00008F3B3878DCBDB2E3CCBD40CEAFBBA0C4AF3D1CE58C3D0048663D70B7EABC9297813DC212BF3DA8AB54BD40709F3D9C4FCC3D40681DBD38C7E9BD60AB19BC60A26BBC7A41D63D5AFADA3DA008D33D9A6EBFBD4C8594BDA0580E3D986F54BD10DA44BDB091F23C8056713B0016C5BB9CB1A9BDF8D0EBBD0C5A20BDE27FD33D9084B03DA075E33C649797BD30C3833CE4BB9B3D3C0AE6BD40A485BB9C19BD3D0014E73B7A9DFB3D0011513C408994BCF802B1BC1E2684BD300834BC30FE5FBDBCF67C3DC87D94BCB800093D580D19BD3CDEEEBDEE80AB3DC8A177BD68895B3D64F50DBD60750CBDB84C90BC70398B3DA846AA3C40146FBBF09B35BD84AB1EBDDAF9B73D228EB1BDB09A003D6605933D0028D5B9105E8DBD9099F03CD81CC5BCCE7BC13D94071ABD4613E03D40D8213D32E084BDDC7E573DA8CF41BD22E68ABDA6D3C13D7CBA9F3D52B4E33D00E247BC68F9C8BD1CAAC5BDB8C8DB3CC88CF13DC4A1003D9A7EB1BD9C68F43DCC75513D16D0823DC0F0FFBB82CEEB3D28A4D8BCF6F2D0BDE00616BCE80DBFBC44031EBD666FBB3D64B0DC3D40A913BCE03F39BD842A1BBD3E91F03D80FFACBDEE88B0BD2077F73D2AE0B43D2007FB3C38B88CBCDCC49B3DF021993C1ECEB73DCC7062BDE84CF33D8E23AABDBC102ABDE48C7FBD9AB2DB3DCC54B03D00739F3D8A01A73D9017FDBC080BAABC100B993CE043363DF01287BDA647A53D280214BD505F79BCE8F932BD808802BD64740D3D5CB1C1BD5E64823D0E07DD3D9846F53C1CBC9B3D2E18BB3D8AB5A53D507A633C04AD39BDEA1EF3BD44FE5CBD8C3E7B3DF285F63D9CE5BABD58FE4ABD18DF1ABD907B173CC058993DF83761BDA23AA2BD64A3723DF46538BD4CF85A3DE81E6BBD221FF4BD38B364BDD021D13D20FD5D3DF8969B3D88CF60BDC0C5B4BCBC0A28BDFE75823D2C9B9A3D70E22F3C5488663D7071353D98DBE9BC101A9FBCD8BEF4BDBE23EF3D40DDD63B2EFF8EBD1028A53D34ABFCBDAA79A4BDF0016B3C1EE5963D60DAFF3C188F86BD1629913DB4E462BD185D063D9A69FB3D34E52F3D94808F3D7833C6BC9807E1BD4A54C7BD589185BCC45DD8BDBE43F8BDD20B8EBD908E3E3D10EB59BD14B3D4BD4434FC3D8EEBE8BDE05CEBBDF47CBBBD402B013DDE3BD33D802977BD5485A03D98A8BABD10BB31BD70DC7D3D10DC033C5AFCC53D40CE903CB824C23C7AE4A53D54ED783D48D103BDD0D2BF3D68F69F3CD838DABD326B843D00CBA83AA8D8FA3CFCB5FE3DB6E6F53DA6D8E9BD586401BD409C283D90CC163C9026023C1A9DD5BD14623C3DA444B5BD5A69B7BD142778BDF023903C466BAABD9EDFBFBDA8EC8CBD40F29E3DEC60EBBD38FDF5BC34921EBDAA73F13D588A843CDEC4E3BDA278A2BD18CAA03D1A8EC63DC822A5BC7A46D8BD88239FBDD06207BDE439B13D729CF5BD426BE5BD24E5A33DE237AC3D6C3703BD309B8ABDC82E22BD8023E53BF4B79BBD7C22993D48D3993C5A51F1BD80A4FE3CA00B823DE000973D00C32BBD0838EEBD1AB9EEBD72B6BFBDF0D219BD9E2CC5BD489F203DFAF1A13DB4AF50BD5C6875BD14D2213DE0D2F1BC2E28B7BDA43EB13D908EAABCE410CDBDB80D873C409860BD9846C1BD802F05BC5E72D4BDE86C3DBD00261A3BD2F9B0BDC0161BBC40F7C73C7C58E63D30FDC23DD82ACC3D28697E3DC0C32EBCB0D14CBC9E67DE3DB8888BBD5AF6A7BDC0C64FBB2856B2BC7E9FCE3DD0141DBD608E1ABC00BC77BC380EC23D2001B7BB660286BD2C34C93D089E96BCE6389D3D209EB03B78BAC5BC9E00ED3D647543BDA064A63D08AA8C3DF04DA63DA8489E3D08BBE3BCB03031BC5299EEBD82B4DABDD4F3CB3DB698F33DB43B48BDF06D3E3C70223CBC3C321E3DAE34CFBD4482A73DC0AD90BBAA50F2BD2CB7E43DAC57B63D907992BD38794B3D9A3AA3BDD07EA6BC821EAF3DF8DBAD3CD05FE0BD2C579A3D6494803D3640C7BDE4745F3DF60A993DD20A89BD462AABBDA83ED13C787B8D3C808AAA3C7035E53D7C9DBB3DA01DBFBB005E013A10B5E33D805D4F3CF2D0AFBD7C190B3DC827833CD8559C3C2C6804BDB4C1ADBDB206B13DE44516BDD01B9EBD0828E93C9036FDBC326E8EBD40AB5B3CAC1BA4BD486E4F3D56E9E9BD008A75BDA25FDCBD865CDABD0622E2BD742AB53D2C3572BD40C2213C74AA88BDB6FDA3BD50465D3C9868C6BCF0BC98BD40AB14BCC651F63D207FBDBCE46853BD1C09F13D80B5F73CE04CBABCF2B5ACBD3659C6BD705E0FBDD0C0AFBC240802BD706C99BDE0108ABBD685B03D0072FCBB602487BD701E0A3D6E069C3DD8FC8FBC602BB8BCB825DE3C384F3A3DEC5C4EBD7C6464BD507E923DF24FC1BD0088CEB95205953D30E937BD100D893D381CA53C08DEF13D103786BD0486E3BDECBFB0BD5A0DF63DE4157A3DA063C63DD0A8F73D409343BCA459103DA87689BC5E58E2BD3247BE3D40D3BBBDD4BB78BD5051BDBD607B8F3CF0394CBC9413DABD802884BD04BEB0BDCCD2213DA0C2DD3DDA8AB23D74125DBD40B3DEBCAA0DE43D3890D53C341796BD20E9FFBD20BAD33BA43998BD38A5D83CE24099BDA01135BD305554BDE454B83DE8B9FC3D88DC693D187AEA3C0292E73D30BFEC3D8E7389BD2C41CBBD70B438BC6EB5AB3DD09A8FBC0C0ECFBD108ABDBDECDC1C3D68AA1EBD8003213B5023AE3DBC9DE8BD685DF93C68C3943DC84B2ABD409718BBBC269BBDA0A894BDE6C6B5BD023BCBBDC4FBAABDC4B205BD7C7F2C3D38BAA83DB83FC3BDF8E9CC3C5029B1BD2057D13B404683BBF657F63D18F99D3D18F0B9BD104EE9BCE00141BDF80C3ABD983FEA3C84D8A1BD2841F33C44F1263D1278883DDEBCB0BD7C9E7CBD1024593DD200F6BDE0DBA93D1C0D423D90E84BBD0051633C0CC7B13D68FA79BD6898EBBCB68092BD3614BD3D1079F43D6C0125BD4EF9A8BD646BC43DDC4158BDFAA8B43D705C2B3CCA11FDBD88F198BCA4901EBD4C1ADA3DC0FB0F3D3AE8EE3DB6139E3D4A9E9ABD0ECFE0BDD02C613D2C91D5BD0EDAF23D7456733D02DB87BDA015013C509EBDBCE2A6E1BD645FACBD54CDE43D00AF5D3DE437BABD4C13903D8801E63C720FC83DC8306FBD608ADBBCFAEFDF3D6E60883DDA86B53DF00DAE3DC8D6CB3D783072BD36188C3D40EF32BBA269BF3DC6D3D53D3A27F63D6269E7BD105D283CE8A6723DA88DCDBD9AEAC13D82CD863DA643E73D4EE9A7BDC02DD2BC00F88FB92204B6BDFCD2C73D44937B3D08B3EBBD00ED243D70633BBD8C540ABD1482CE3D2871B43D741CDDBDBA25A93DA8499C3C18E65ABD547E093D6476CF3D08E2C23DDCA78F3D6457413D7065A0BD5C2BCFBD6CEBB13D24FA013D5055ED3C70E3F1BD6E02FC3D5EF7B33D9C268E3D248F553D3E1CD8BDA258B73DB4EC71BDA0E6933CDC66503DD4CCB23D487AFF3C82C4AA3D4C59883DC46C5DBDAAEEDBBD72E1D43D8C0929BDECCB38BD70BFF23C40E4C73C660EDFBD38DDFF3D804A373C8472283DCCCCF03D9463133D8043C2BCA638AFBD50C7B83D0A49D63D001D503A10FEB2BC40A6423BD02CD83C04956F3D603AE03D14C7F33DC0F7C0BB7CFC923D20738EBC088AFD3C200ADFBD7C0F983D94009BBDF013403DA6EA84BD1A7BF6BD802D2F3C78E2B0BDCC19C3BDF8CBB03C944AF43DC05B313C5EE1CEBD8CCDE2BDB019A5BD587F9EBD1288A2BD4CF5E63DE87E6CBDB2A4CD3D6422743D286E92BC2CD2A8BD7A5ECBBDB8AE94BCEE788C3DF8A6E83C4A81BABD7E0AD83D8AFE903D6E24993DC0AF61BD1CB71EBDE8CD273DF0AA933CA04BD6BCB0D59E3DD0968B3D101EBD3C9E42E83D4CD2223DD235EF3D7641DE3D1E12DC3D9E60AE3D6C293A3D34DE97BD76F7D63DF6D4863D5CAC043D601FA83C3665F63D5413F23D300B8BBD5021A33CBC7EA4BD2040FB3CACDCEC3DB43503BD2C732EBDA64699BDE0E7DBBD5C5BE8BD683BABBCC458223D4690CCBD680ADCBCC042A03CF067EFBDA476D63DB218A8BD348C613D20E685BB9ED9FE3D946244BD0419D0BDB6E0F43DC0FCC7BDDE6483BDE48F27BD164DD4BDE0F7E0BBC261A2BD80B163BB405EC83C905B3C3C2AFE87BDBC9475BDDA9F923D8461623D541C46BDC0414C3DD4BC1C3D2CAD0C3D4A35A83DEEAFBE3D9EA1C2BDB84CFCBDEA2BFE3D7E0BA43D3213B3BDECE9593DF070C13C7830413DF0BE5BBC62C29ABD8C45EABDD09F133D4CB4C5BDCCA4EA3D14BF82BD26B1853D9ECCFDBDC0057FBC705F1F3D06E59C3DCACD86BDA0F3EB3C940A1D3DF8064C3D3ABA953D82A5B5BD94B21DBD3642B33D1C0C44BD9ECF8B3D4EE9EE3DB8D1D83DDC83913DACF999BD6A31F3BD80E7F03A0041C8BC7C9DEE3D1211D5BDA62584BDD6D5FB3D98089ABCF8D976BD6A2D8A3DB0CA243DE8F3A2BC04FE4E3DF0BDD9BD540C193DE48748BDB8CAD8BD04D658BD40CFB53B300A223D60079DBBECC3953DCC15883D685104BD26C6D3BDCCC23D3DA0E1B6BCA885BC3DF079A73DC000AFBD5A80823DA419CEBD40310EBC96B8B4BD78C5ABBD800207BB88E5CC3D501BB6BCE0A5743DE467F5BD2824CF3C4C4E743D009EE2BCAAB9B5BDD058E93D1E89BCBDD278C5BD20C95DBC1C50A9BDCEC7FF3DDC7EB8BD442ACFBD004A7EBB866FAB3D505165BD90CE54BDD007C03C209D0B3C6C26233DC099D8BC48BBFFBCC05BF93D3C0632BD94DB383DA6F1ABBDA4055DBD7C93183D78F91A3DC05FF7BDAA84C1BD62839D3D1CA1C93D0624F73DE0C213BD00B4A43D0811FE3C709736BC1866A03D603FA53BF890BB3D7ABBF8BD16FF803DE0C2BABCE8DF123D907D15BDCEDCEA3DEA3C9E3D9C2BEE3DFC5EEA3DD8535CBDB004C8BC88EB14BD4C87463D3E6EFF3D803C913C7AA29B3D0816143D80AA953C4E0E8D3DC05ECCBD2425643D40F2A7BC28192B3D7663A63D7C3713BD186D4C3D8CEAB63D0820A2BC7C9556BDA0F6D0BC6C151CBD105FC83C7828883C5A219D3D6AB1BEBD6C4D8EBDB4051A3D108830BD380CBDBD76F6E93DB4A37DBD00BB0D3A80814DBC2861ACBC96DB8EBD3021B73D98FD653DF08717BC2E9882BD2867E1BD14FB7FBD60BC7EBC58DD9EBDEA4BF13D347F1DBDF0A3E83C40362FBD301C543CB469B5BDB8C0BBBC1C0FF53DDEEDAD3D2A2AEABDC229D03D2019DB3D7889A63DD0C755BC1685F43DF2C0DFBD504721BD280DDABDA4BD683D08EDA53D20BDDCBBC659DABDF08E873D00D260BC4A22F33DA07DC13D4C3B83BDE0BD503C00D8383C0C21E9BD1074A23C52B9B83DBC2B343DF84B5C3DC4F18DBD2C7706BD18C222BDA0AB953DA840313DF45372BDD48646BDC00B103C0837B63C30486C3CAC4FE73D4423013D6682ABBD2400723D40BA973B4094233B0AD7E23DE2EACC3DF0DAD6BD3419B7BDC023573B8007023B10593F3DC6FAF33D52D2DA3D6C65C83DE843F03D8EDDF5BDC0C02B3D940ADC3DC0EFEF3BF68985BDFC3791BDEA4BA63D9C097BBD60B2B7BCEA8AFA3D1275A6BD104472BDD254C8BD9E83913D504A17BC500C13BD94EB4DBDEC993C3D2C8AF8BD9A5E923D9AE69C3D80025D3B6056383CD02DC73CA84A0A3DE452843D1A62DF3D90A0193D4290823D78C9813CDE01BC3DB87FBB3D508C913CA0A2493CA053C93B7C8FB3BD9265F63D2087B6BD0037173CBE3AA23D90C4CD3C90D90EBCB0E1EC3C9009653CE8FBA8BD3480C03DA06988BD0E2ACFBDF0AE92BCC829D43DD0A61CBC3A58E9BDFCC480BD20233ABCE83780BDE0DB92BDF02ACDBCC44E19BD44E595BD6E59B0BD58F6DFBC90FD9FBDE4F336BD6629823DE855B93CC4A28B3DC0094DBB905F25BD4838423DDAC0BABD8251B1BD867EB23D30332DBCFA72863DC655BD3D6AD2F0BD887A0FBDA4E846BD5091D2BD84D18EBD6033D23C00A89A3826B1DD3D3651EB3D3871EF3CDCD54EBD400BB43C307204BD4807CB3CDC01303D5C944A3D08F7B7BC5AB3F73DF804903D50123A3DD813FFBCE07E53BCDE7FF2BD1271C73D8263D53DD881803C50F4B6BCE0ACA3BDE4EC393D503E5B3D3E298EBD6065EDBD64DDD53D4029A53B70726EBCC0E35FBCF645AC3D9E12E5BDD04DCDBC38ED6EBD723CBFBD684AEBBC380A863CDCC7B2BDE2A7C53DEC92E2BD7AA0EBBD9C349B3DC23FAABDD4CC7C3DF025CA3D1ADEF4BDE215F53D487818BDE8AE2F3DDC33373D3CC873BD0CA8A1BDD033BE3C34718D3D2029553C8CF7F63D48C4373DC2429DBDC02797BBB45829BD5079313C68BDF83D407391BDD40E733D40A23C3B34D469BDBEA2BABDF8499CBDEC0850BD806EB33C50ECE33D24BA273DE460813D5C64803D00F271BC4028D33B50FFE83C021A8E3D600F95BBA07FBA3C8C767ABDA0BBA93DC693DE3D2040BA3DF0B0783C0806A2BD909D2BBD2C0F2D3DF083C73C6035B1BBAC3EDC3DB0B5F13DCC9ADEBD083536BD0E22FE3DB01E013C9239F9BD804923BC28252D3D10C75FBDC8321D3D4295C8BDAEA397BDA03C53BC4C0FD43D5018743D82F4A83DB8FAF13D70F55DBCDEDA94BDA038A83B889457BD8CE535BDF810E03DFA7BC13DFEB3A3BDF090F4BD82F2803D10AC083CA4F1CDBD50CF383C52A9843D6A84883D8C8B193DF47C55BD148D333D9216A63D267EA43D3022AFBD200DF13CCC5655BD8AADE2BDF6D2FBBD4E6BB4BDF016103D88F1F23CB492B7BD50FA6DBD54DB7C3DE2CEC5BDA4F9ADBD10FC1BBD481B8DBCD4F8BB3D5A40DA3DA8362C3D6694F73D7AB5A03DB0B4383C2035F03B6C1EAA3D36A2E8BD7493AABDE0D3C23CAC556EBD78CF03BD30E2DBBCF08990BCA008723CD28BC8BDDE6D823D4008B3BC287ED7BD7AEE813D7A9DB73D000086B63885DFBDE27CB1BD029C973DE89D113DDC4560BDA82E80BDDA00893DA0F9F4BBF69196BD7061AF3DF40816BD72E0F1BD00733EBBD06CAD3CBA85D43D94B7CDBD1833C0BCB0612ABC22AA933D76D8A53D80849B3D049A58BD22D4D03D46E69DBDACE1EEBD54301F3D908D9A3C022FDEBDD2D2C23D9EC8A1BDDCE972BD722EEDBDD4E0E0BD1C788C3D80392D3BE0857ABD9097C53C54B416BD3045C43DFCCD92BD201F15BC101E75BC10CE3FBD506D323DE244F03D30927BBD6893923C003A3D3AE0A5B2BD4CF4913DD6F0B93D484AEFBC08AA36BD9075703D04C6073DA0F947BD2013533C9E329FBD94F7483D483AE4BD88AA773D16AEDABDB892A63C405FFABC24AACD3DB6EDA53D500376BDBADA913D8A69A9BD825EC3BD0273C03DC2CCAFBD3C11FB3D50EF48BCAC80533DD8CB2EBDCCDB573D003DBF3AAEEDD9BD9A65BBBD60B623BDE47B7FBD02ADC63D9AF6BFBDF002F83D3EF8C43D1025393D104C0DBC106281BD202A093DEA05BE3DF4693EBD32D6F53D00D5453AA6A7C3BD7C023EBD646463BD9E3BA33DEACBDD3DB888623D6A26C5BD8839C13C84ECC5BD60483EBC8647D63D9491D9BDD0AEC93CC8E7F83D3846A83D0877843CC48EFDBD7CDF7ABD60A39B3C5A72C8BD082E3CBD8EC69BBD5ABA893DDEC4DA3DB8B9D63D388DA03C3AC6B3BDFC24A63D1EA4953D8C45C9BDC016303B56DC993DF8BBD53D70F12EBC6C7C1FBDE21FA6BD9A68F73D50FF1B3DF00BBB3CF6B1B8BD008A02BC084BFDBC50D2D2BDA26DCDBDA04200BCC2C19B3DF4F62D3D3E5CE73D78B357BDD01AA33C36669CBDE049423CC67FE13DBC45743D54C4823D60E3DA3CBA479F3D301A74BC74934A3DC83EB6BDDC9394BDA283823D266EA4BD4084B43D30A73ABDB2CDF33D3439D73D08CDE7BDF242EEBD5864F1BDD4D770BD28968EBCBEE2F73D58D3FB3C6899AC3DC8175DBDECF51DBD9C232A3D1027D33D5AE7F5BD2285BE3D4027223DE0DF95BBF055283DEC1777BD860090BDF0C2BF3D3827C23D8C5FCDBDA01D5DBCD018B43C402D6ABC0E17CF3D0833933C2CC4703DB0DF69BC2403