module attributes {torch.debug_module_name = "SelfAttention"} {
  func.func @forward(%arg0: !torch.vtensor<[1,16,64],f32>) -> !torch.vtensor<[1,16,64],f32> {
    %none = torch.constant.none
    %true = torch.constant.bool true
    %float1.000000e00 = torch.constant.float 1.000000e+00
    %0 = torch.vtensor.literal(dense<[0.049648121, -0.0195209384, 0.0705880224, -0.0837724656, 0.0791181475, -0.0501479208, 0.0238841325, 0.0790908486, 0.00597463548, -4.52831388E-4, 0.0527716428, 0.051194489, 0.115527496, 0.0944797248, 0.0166732967, 0.00976343452, 0.0111934096, -0.0219333321, 0.0822844356, -0.0995863229, 0.115636081, -0.0685538054, -0.0905511826, -0.0986649245, 0.060327366, 0.0383777171, -0.119402215, -0.124195427, -0.0801971108, 0.102322757, -5.698210e-02, 0.0350949317, 0.0945795178, -0.106551662, 0.0345024019, 0.0665029585, 0.114776403, 0.090417251, -0.047518298, -0.0265904516, 0.109697789, -0.0582531095, -0.0479866415, 0.0870636702, 0.105430916, 0.0613896102, 0.0672063082, 0.0167874247, 0.0677181929, -0.0356261432, 0.00974419713, -0.086188361, -0.0230596215, -0.111702323, -0.110017821, -0.00834733248, -0.0576226264, 0.0206988156, -0.0203099251, -0.00503796339, -0.0780300199, 0.110924169, -0.0946151167, 0.00458653271]> : tensor<64xf32>) : !torch.vtensor<[64],f32>
    %1 = torch.vtensor.literal(dense<"0xA4D3B03D1AC1B03DB4400F3D7A15DCBD6029E3BD94D3953DFECC833D9EA7DE3D3CDF98BD1AD7AEBD28E4763DC04183BD10411E3D2820B6BD1665933D048BBB3D1058F63D0C7734BDBCE1763DD46394BD00846CBA60140ABCD02F213C4EA5EDBD5CD70C3D3EE39F3D60A3CB3B1C676E3DA04C6B3CA435003D326E983D12B2C4BD363DB13D74E2413D8AF49EBDDA99E53D0C3BE23DD8683DBD8CB6843D48F8CEBC78E6413D00DEA4B9E0ABAEBC1037F1BD08C4A93DD25C8C3D84FBACBD70AC303CC655E1BD16D0CE3DECC047BD4847043D40B7913C1606CCBD2E5FDF3D10AC3A3CA47CDD3D089ACDBC207099BB6873A5BC285A77BD9EB698BD9CAA783D9A68BF3DC8965C3DF427593DD4DD7D3D84634A3D1E1A9FBD30010FBD7AD6A6BDB8A0A43D6A8DEABD005F2CBB9465AC3D30A9E3BD1098563C30CD803C20EDEABBDCD46B3D6C6FA83D6CD70CBDC694FFBD52FFCC3DE097663D182A65BD1677BEBDBC089D3D5A1FE1BDBCCAB33DE81C82BC38362CBDC8C1E83C985B973C70CCD43D702047BCAA06D5BD04B754BD56D8F7BD44ACD93D085F2ABD58F7773DF2E6CEBDA4E0FFBD9ABEC9BD88999EBD52BF9E3D3811FFBDB40924BD40A3CB3D903359BC94D54B3D70C2A9BC78B7E5BC00399FBD0043CDBBA01964BCE8C2B03D3081273C58C9CF3D704F083DB07B27BD6C2B3CBD706171BD4E16C83D9E18FBBD5C02BC3DBAC2D7BD00A4CC394094AB3C00BF0ABD6C697BBD1C1706BD500C54BCECAD693D00CE70BAA0926B3DA02C963B867C9B3D18EF31BD8E03C43D5C53F23DA84196BCEC52913DCC6374BDC043CB3D0871C5BDA8CCCD3C9E1499BD0A0ACF3D7894CBBCB809E63DCC20DEBDD03115BD8A7BA8BDD819573D004876BD66F6D33D205E8EBB00110D3A60FAC6BB2E60C73DC0EB41BCB856E83D00C2193C5E99F0BDFCBBABBD48D06EBD7C0D223DB009073CC09F053CFC290BBD7842AF3D5A58B0BDA447373D00C02F3B88249C3C0893F83D4C28EABD60BC7E3CC001183B2638D63DE0F03FBD263CD1BDA2A1933D3049D3BD7EF1EEBDD834D83C086A89BD6C0534BD405AEBBCF67CD43D4073C83B8029D03D7844F2BC68690BBD846180BDC4A5B6BDCAB4F83D84F477BD80759BBB00291BBBB83EDA3DC08EDD3D9659CC3DA6A5A33D84FD4C3DC87EF4BC5032A6BC22D485BD745D803D1EFC8CBDDE5AF7BD7C7FF1BDEE1BC2BD1829D43C40B2563B0498B33DF0E43FBC00D01538540F95BDECE5593DE41510BDC04C31BCA43F80BD0A2DAB3DCCCDC33DF85D8C3CF03E3EBCEC4D60BDE4CDEF3D20F0723D90DD01BD58D6F4BD406382BCF87C97BD009035BC34E0113D6012F8BC005674BAE4BC133D109DB0BD1012D63C5C2D67BDC2DFE63DC0FCC8BB84EFA43D6C1FA3BDD6C7BD3DD23B8EBD24F93ABDDC828D3D58EE973DC21AB83D34D07EBD60ED943CA825933DE4B71D3D007F71BC821C92BDD4BC353D5E34BDBD12E1BE3D5E54E33D6855853DB8283CBD805BA5BD7CDE0E3DCEAA87BDCED7BFBD9AAACBBD3CC4DB3D444F01BDFCEFD73D36E9CFBD201EFBBC881CABBD20E1983B00F8CDB9AA85FABD00EE4B3D6E4AB8BD70B90B3D24E8123D98A9DB3C646A1CBDA822C43C107FDEBC404DD4BC008B76BB2057D6BD3044613DF053EBBD9821EABD88EAA4BCFCBAC2BDBC34723D00C14A3C0CB3ABBD9297A7BDF008B63D94B8A53D0036CF3D500B703DCE55B43D547EA13D4812CB3CA659953DA6B1D9BD50BC7D3D800B603BC00F983B70ECD73CC05BA33C10C5D8BDDA68FE3D3EE4EC3D4095ED3D5074043C761BA5BDAC12B23DA89D18BD844B673D00F458B9A0911EBCD06BE8BDA0125E3C14AEB6BD00D5DEBCB01EB6BD3676F53D00F71E3C006F1CBD401C2ABB307033BC4C90BEBD5256E13D8EB3DC3D1CA918BD001E02BAD076A83D7CEFB83DD0E9C33C7A36ECBD6C761EBD2693B23D0840EEBD386FC33C5238A7BD80DC153CE8DC6FBD4C54AC3DC0B9CE3D0051073BB077D7BC803FAB3DE8CCC5BC8058023DEC46573DB83B91BD3C9822BDE633E43D00826FBC487086BC30B252BD9C19DFBDC0725A3D781B933DF058AC3D3C3F6F3D003AAE394AE2FCBD0E3BC43DF8ABCF3D6E81A33D40D305BDBEEBFD3D5C50CABD343DD83DEC00343DD48C4B3D3A5499BD3245A3BDF86475BDC07F55BB00D67C3D000519BA400E81BCE04717BC30EE8DBCD0B1DDBC100CD7BC448FF2BD6C04DDBD84DF53BD40C141BC14895C3D841136BDA8E58FBD36D7FB3D447658BDC6EE99BD5EA4E33DF0E49EBD98938B3D14E6BB3DC86C3E3D008F943C0456E7BD14EFCC3DCC1A0D3DA07C3E3D9A0FD0BDE0B33A3DCCA297BD483CDDBC807C99BC180DF3BC0A13E5BDACDD0FBDA4686F3DC8D705BD7A12D23DD4AAB93D3803FEBC903EC13D006AD93D0E6ACF3D943A703DC267E7BDD460EBBD9809F1BC1E9297BD10012C3C682046BD401FF5BBBA58D13D2C6DE13DBC1EC3BDD8DBF73DB496583D4CBC363D06598DBDC01FF6BDD0C9003CD689F73D221E813D10BCBC3D38FA633D88E99EBC860894BD48C76DBDBC7E20BD6CA66A3DFE91D8BDC0576CBD884C10BD20E8B0BCBC024C3D4C3C1B3DC0C4253DDAD4D2BD846A073DA8829A3D9458493DBAC981BDE0724DBC48307D3D80C6F9BAC04A133C78FD9CBC9A75A0BDB060DFBD1E15ECBD3C9506BD0E4D9ABDD0D6D1BCBABBEF3D183B893D8016C33D6C1CD73DC8C8D53C5AF3FF3DC0B7F03DA8F0C03DFAECC03DC0192D3B0C5A943D50EE0CBDACFB973D3287B63DD83DC5BD94EF10BD9274C2BD68D8E9BD0080A3BB9C6A673D26B6EE3D8839533D60ABF9BD80F839BC40F402BCACD881BDE8349F3D82A1FA3D242E793DEE11E03DB888933C66F8C6BD108BBFBC34F62DBD841B453DE45CCA3D7828803D4884E23D30DE0FBDD09944BC1C8DF4BDE800253DA0DA41BD1CABA9BDF8D1E1BC08C54BBD38F65D3D209383BCD0B06DBCB4C377BDD8AADBBD7822743D749AB13D6C9AD23DE8436CBD30F1A13D423FAD3DB014043CF09522BD88E204BD00226BBD88AC1D3D5035DE3DC00B443B1460DB3DF45DA13D5A7DFC3D285DBE3D48BBDDBC08C992BDA0BB953CB451B03DE0DD74BD96FA8E3D304F503D3224F3BDDEB1A33D40AD0BBB6030A2BDB0A2A73C641171BDDEC4C73D3847963CBCB04E3DE0E976BDA0C6913C582023BD4A25AF3D56DA843DEC29D63D2428563D60575F3D66559FBDA0C38E3CB2EBB63DF841C93CBEFBBF3D605C78BD881555BD203FF8BCC41313BDA0A793BD84BC143D8082D4BBE0BA86BD7051213DC8991F3DB2B186BD00F0D0B98017853D68C3D0BCA0FB263D4C24E83DA0404FBC88C3E6BD80D9363D8822C13CA816C63CC2F9A9BDC8FEA3BDA821EBBC38CA0BBD406024BD723D9ABD300261BD1C60803D0C4ACE3D2A95993D34E0303D54D6D63DD053983D707B61BCC65CD93D88FF673DB05746BD82FFE4BDA050A83D505420BC50749CBD2884013D4C2713BDD8EEDA3D925D9DBD7E07C03D52E8D03DD81E2D3DA0C55ABCD080C3BC705094BCE440F8BD58C73D3D70E023BCD00BAF3DC8119B3D3680CABDA048C43D1CC256BD84D28D3D7088D8BCF083CA3D58CD8FBCF0F49CBC40C4B83C64A7B0BDD81B97BC6A53F5BD1014E9BDF07B243D4858423D285EE2BD0EF8F1BDA2DAFBBDDC544FBD8014823A6097D5BDD035F5BD10C2C6BC9C931CBDF09D64BD64BDFB3D30E155BDA0CAD9BD0CD1343D4CFE69BD60AFF03DBE09C4BD92CEBD3D301ED3BDA28FD83D2676A33D4C64F03D1439F53D387AE93C0E07EB3D688114BDEE09973D08C7033D38D4BE3D20FC02BD88C1733D203FB4BCB8E92CBD144181BDBC298E3DD400E7BDAA35C93D16C8C3BD642214BDB8F9D83DC08A083CDC8FC0BD88DED73DE0DC5B3CF489C5BD9086BA3CF4FC0CBDB61DC53D30DD883DB0D52DBD6893CDBC1AEEC03DA20DAA3D447FADBD0059F43AEC77A43DD22DCC3D4A4FDB3DF877693D962BC33D5E06B9BD66BFEB3D982679BD885C5CBD7A28ECBDA878833D70195B3DDA5AF2BD722FB2BD88FA96BC6CCB843DBA33D33D38519BBD00683F393C6895BD3670F7BD60CB233D1474F93D446A203DFA3ED1BDACAC57BDD8722DBD9206C83D2E31BDBD004F25BDD0319EBD80D3BBBCAC1D5D3D443164BD50F687BD981F4FBD283280BC00001EBD4CDB98BD1084A0BC80DA1F3DEE07FABDB0061E3DC8130D3D3ED3B5BD5E1AF63D90B1B33CB0C3863DA48CCCBDDE4DB73DDCF2833DDCE2633D2844D8BD6694C4BDB0CBB93DC86AC43C18AA1B3D3844ECBCB85533BD8AECDBBD744E5CBD18A9AD3CD04EC6BCE0AC093D28FA163DD207CBBD408DBEBDDC8A2D3D52F5DFBDACFFA23D9A75CC3D40A9153DB8C03F3DC0C233BC98BB433D4E4AD7BDC0C05EBB7CAEC5BD00C7F63CC4D9BABD44B247BD32E3D53D80D5DFBAB8CF52BD5864BC3D5ACDBE3DA4DF353DA8F191BC5491033DA858D0BD2887D93CB263FFBD10425CBC702AF73D688A06BD940901BD2039513CDE40C4BD20115FBD001A7EBC48A6853DD2EBB3BD7C901DBDC0C892BD6C8A0D3D46BCB9BDB80961BDAC0DADBD5C96C83D74DEB53D84C0D13D0847C4BC7093C73D70F2EEBD90F48DBD480EF1BCE00342BC10F92F3D803B183CCC3062BDC4F9B5BD884BB63D60A14FBDCEEFE8BDE05885BC2E60B03DCC81003DE4A867BD50A5FABD38B695BD80C37EBD50823D3DC84F8ABC0068C13880595FBC0486C1BDE891B43D48EABC3CACF931BDC4AAF0BD74E74CBD041E2CBDF8979D3D9616913D10C5BD3D3654A9BD50AA5FBD00DDE9BD6865133D603910BC9C62F23D606CCBBB22EC82BD286FA4BD2C8B283DF4AB3FBDD4C6FBBDA49F633D3A7CDA3DD4CF4C3DB4A4FF3D00E48C3D6EB9B6BDCC5EC83DE65D80BD4282C4BD68B1B7BC909C87BCC4CB1B3D1EB5A7BD08FDAD3D08A5C1BDCE21CC3D96C6EDBD709ABABD1416953D04E7D23DF0BDB1BCF4FBD1BD2A42DABD3E3CB73D2CE0C8BD3C864EBD60F08BBB04B62E3D2448073D989B923C6A1CCDBD78388BBCB6DCBF3D5883AABC289BB03D441450BDBA0EB0BD18EB5ABD6CA1E83D3CFE583DBCEDA83DC8B1E8BDCC398E3D3E21C6BD82909CBDD09E0CBDB89C34BD4673FABD20596BBDAC5E80BDE01E403C806224BDF051BBBC40A61EBBB892403D8878BE3C384B273DB07A893CD46F36BD046DD0BD88A5883CA04391BD187EB53D603B7CBDA028BEBC084C87BC2EBFEC3DE0CAF1BDBEB3BDBDD095953D806657BCFACB9C3D38F4153D889C713D20CCBF3D803CF33C000974BA1AC296BD6696CFBD1880EABD841F56BDB0CC203CF0396BBDD4B1063DA85EC53C826BF9BD00280ABA005BC13CD0A01D3DA08724BCA06261BD4E91C73D30D0793DAC6197BD9ED68ABD58E8BCBD4637AC3DA012C73C364498BD10849ABC1CCAD63D24ED163D8259853D28D2B63C3823D9BD76F7A2BD74A0A3BD1870D7BD4C814B3D0270A7BDB81990BC706058BDE6D5F83DC482AFBD98C1F23C5C1E593DD8C9ADBDAE23D9BDF0E8E0BCF8C8D43CA214E8BD84825DBD5082A0BC84551E3DD0B59A3DAA3C84BDB0846B3C8C44CF3DD634903D2EA9963DE6998BBD30D09EBC501535BD98409B3D90C522BCA0000ABDA045AC3D105C743CF4AD55BD907C1CBC58A4BE3C40D00FBB400C273CE89C963CA02A49BDD8A44CBD60DC98BDB8D2993C5086E3BC8ECDF73D900272BCDC27B73D860FC8BDC01A553C2237D23DCC38763D00CB65BDD6A0A8BD60DF52BD32C6F6BDC84989BD64ED30BDB04B243D4417FFBD2E25ACBD6C9907BD522CC1BDD095153C4059DABC6859C03CB86889BDC41737BD8E5B9EBD487B80BDBA1FB3BDB864DB3C6818B03D04E2CB3D06E4A13D00C3603D62CBB3BD5E92A6BDA0F005BC20F2CBBD5892DE3D24CF54BD0C86EA3D00319C3CE86A55BD8E66DE3DBA5FDD3D6E88893DF88E8A3D1634EFBD1878A73D38F382BCE0E5923C7867A23D1C7B703D54469EBD48C1C43D707F90BD68ECA63DF84F0F3DC2F7E33D50C5C73D4051713C68E44ABDF4F958BD2CBD3B3DC457383DD22BDDBD8A0AAD3DA8FF9DBDA0E4C1BC50FA293DB899D1BD3084DE3CE84AE93DD0A6A1BCF8575BBD20258FBC107B6FBCE648A3BD02D1E5BD00E8A8BC8C19973D840A21BDC8E996BC563BFB3DD4DD65BD6CCB533D9E89C33D0CC73EBD944A1E3D9817DFBC70AD70BC6494883D64DBD73D84F11FBD686BF9BC30977DBD489BEE3C2441973D5E909C3DC899E03C269AE93DCAFFA43DA6E2F3BD12BC873D781D843C50A8613C4681D7BD8801A7BD94BE9E3DC80EC43C907FFA3D240FD4BDE43428BDBC82533D34F1CABDE646A2BD7057E7BC10DF133D3E8CB23DE0FB63BD92F8D0BD4C043DBD9823FEBD66EC923D7424023D784A0E3D400EB0BCB008733D401D773DA83DCE3CA03C66BC8070BF3A40ED213D0EF8D8BD14AC463DD8838D3DAC576DBD341DB63DCC21C23D68E2DEBC0A7F9FBD101A6D3D32F8EDBDC89D98BDEE6CC9BD865EE6BD5007ACBC0618CDBD9AB6D43DB83933BD2087593C68D7063D98F3363D801D9FBABAD887BDAAD9B13DC804D43CA0672CBDC01B2B3CFC36C1BDE0C45FBC30DFC8BC204E123CF073E53D141DCE3DA842003D006084BB0ABAABBD1C31553DB043BEBD78BCCBBDDECEA0BDB83984BC009DBC3BAE1BA13D3CA2123D60D5BBBC1ED3DA3DC29E98BD40AEF4BD62C18C3D580CE23C56EDE93D6009033D3C4F383D7E36CB3D4EF3913DD0652ABC7072513D708E47BD10EA0A3CDE4481BDA43C393D8868A13DCE78ECBD824BB1BDD8C8933C3225C1BDB66ADC3D84DA3B3DCC9CCC3D4CAE9EBD7A40A53D5A29AB3D8019E9BB3A25FBBD8023F9BC76EDD4BD9CAAE73D10FAE23C506BEFBDE2DFF9BDD253D53DE6A3DA3D68CE42BD0819DBBDE865ABBD7C2310BDE82D863CD8C1F8BD822C863DC2778EBD0A4CD23D1CE98EBD38BF833C201FE03C70D110BC4286FCBD9A02D93DA4CF073D00A6A5398204A63D245895BDFCABB43D6248AEBD5CF9E93D706CA1BC566F8E3D7AC5B53DDED3B03D3880043D4422F73D08F9D93C409B5DBC365182BD104C6CBD08129B3CAC97123D60F276BDF27E9A3D445D2ABDF84B29BD0C985C3D84865F3D6237BF3DBA84B93D88B5C4BC1008B03D005ADABD906FD0BD62C2CC3D00A156BB2C658E3DA4AA0EBD20640C3CB062443D589C4BBD487BA83CEE28B83D0097BF3B68D07DBD0008E6B970E5193D98B6483D4009513D88CDCD3CB8CFDE3C38EEB73C8849923C503CC3BDC0ECBC3C782FEFBDF438683D9C718D3D6097D13C6C11C03DD84EF7BD500886BC9C1B303DA070A5BBB01B7C3CC8C7E53DB0378DBD2CE272BD843FE03D927A95BD98A58B3DEA84B83DE049273C8817F1BC9046E9BC08595E3DC0AD2F3B2AB9F03D4C067A3D74C1773D50CBC03DB279923D5825F4BD9C80973D184B99BC648200BD343DBFBD68C7F33CAC0A21BDF4B1D23DA8B25A3D260FE6BD409CECBCEC15BE3D7086CD3DF0D6A0BD043F3BBD34EF2DBD0831A53DD4A3D73D84B5C4BD74D4DCBD0C168A3D4044973C76E5C4BDC0B890BC086FD9BC4446A33D4023AE3CB801B8BCEE319ABDA41B8C3D5CE9DCBDEC2DCCBD64981E3D8E56B1BDCEEC943DFC3013BD0C694EBD3A22FABDDC8290BD20E2D73D28C692BCD889B63C3C9FE33D5E93B23D820CE2BD2050DBBDB09623BCEC69113DEC97B3BDE669D5BDA46537BD669ED6BDCCD83EBD9C94233DD023C7BD3844C9BCC836E73DD421FEBD763D9F3D847927BD54D9363D26319A3D5402F8BD2817F5BC2440223D2CB5E6BD6EE8D3BD2040893D162B993DA45886BDC48604BD5CD2A83DBACDB23D405BFE3C881A8D3C00D8F4BB5EF7D33DD02DA23C58276B3D74F0CABD2028343D8227C7BD7CC1053D18BEA03CAEDAB93D003D70BB9836B4BD000C5F3D502B33BD6261CBBDCA1FE8BD7488523DC0B5213C06D2C43D6882CEBCB299F13D1CE8F33D44FFB4BDE4698DBD2E26F93D682B3ABDF240913DE03F853CA06994BC2CF392BDDABA973D84D370BD549A343D90F8323D40E991BB346E6DBD94BDE6BDB894993C74F500BDE481B33D9CD5693DB0510C3C70A3F9BC4080BABCB2DBFE3D88A6BFBDC084CDBD6207A4BD7A39ABBDA2E7933D80DF5B3DC03CA1BC3E0F90BDA0D6D13D3415E9BD90B6783DD0BE9CBC6E79E1BDAC3F72BD846140BDA28D983DC07EBDBDBC77F23DA0275F3C46ECC5BD4C02C4BDB4F566BDAC11723DC493EEBD00558E3C160CC0BD60745B3C2AD7FA3D28B3B73C7AF58A3DC8B797BC009345BC80D077BD5C5FF13D90C8AA3D90CDD7BDA8BB4BBD8687F7BD0083933A3858963DA8E040BDF07909BC70F8B1BD387982BC9861CFBCC27AB93D0C8DEC3D20F0E5BD3AFEA2BDF851ECBCC09A37BD102802BDD068B63D8017383BA24D923D569C903DC0B7B43B28E3363D96D3D6BDE8E9E6BC50E0673CDE31EEBD00F2D63B80EAAEBA3C6091BD28C1F43C7659F8BDE4F0433D20ECC6BCC8D3BF3DEA37B3BD3EEEEC3DDCF009BD62A5DEBDBC3E00BD2C2727BDCE00C2BDBEA19E3DE01F593C86BFCFBD804BA1BB40AD2CBD50D2B5BDC835103D708134BD28E880BC80F8DABA28C1D3BD000231BD6CE4C0BD4608AFBD307E013D5278F3BD3C449DBD9487EE3DD25FB4BDFCD9903D10FC433D60A6AA3DCCF1283D12BEA7BDDA7FBABDDEDAC13DCC26C6BD2C3FBD3DBA01BBBD02D4D43D586DB73D983F6E3D7C0F89BDB8D3963D4EF5A9BDD88EA0BD84A3D2BDCA9EBB3DD47F603D0016CA3C98708E3DB43719BDC00444BD1070DE3C406BA0BB80D1B3BDF07DDC3D10681ABC24BC563DD05E88BCCC08F2BDD87C84BC784EB7BDB6A9EEBD2CB9D23D92A2CCBD00F46D392A86C7BD3607EC3D203DC93D12A3C53DB0B9CA3D8A14C8BD5ED588BDA071E5BBF839FBBD942888BDE45DE5BD48BA713D16C08C3DF0F362BCA8D9793DC8C596BD7E36B8BDFC41D33D20D2F7BCE8879DBC9A158F3DA622F4BDE8372C3DA032C0BBECDE173DB0D5C73CD0AEB93DEC0224BD2813ECBC989287BD7851CBBDB86C113DA00E93BB6E20EF3D462BB8BDEA16EABD281046BDE0911E3C10976ABDB88F723D4A08FD3D38A7F7BD906CAC3CF071173CA44A143D7A41F8BD86E1A7BD80A1123D246E19BD40303C3BC0EECFBC308D913DF013C63C20B2DF3C34B0BE3D2C6AACBDC8CF5C3D0262913D50586A3C70EF2CBDB054573D9E68803D5AB5E4BD608CA7BC589DD5BCC2C1D03DDED2C8BD9403BBBD0C6634BD60C4E53DC83406BD66AFD7BDE4AFF8BDA49A7C3D40F70E3D5C906DBD3882AEBD80DA5B3DD44B453D5A22DABD746DEC3D506E843C921FF13D26048D3D1891DABDA25EF23DDE44BABD5C6B0DBDF826E33D001165BCB0D1883C60EB9D3D10753CBC9043343D203EB8BD606E05BCA430FF3D947EB4BDCA68993D02D8C63D20FCC7BDE0E962BC2085A1BC700CDC3C0065A53A068496BD004412BB7859B13C149985BDF03D4BBC3053F63CF0C50DBC74B03FBDEE9BF33D584F803CA04ED13D807DFD3CE4A0FF3DB07F133CB4CD68BDA4179ABD543097BDF4172DBD4CBE77BD0E6999BD52DEA23DD8E2783DE2CBABBD6822B9BD4E698C3DFCCBF7BD84BBBABD98BC893C0054BB3B0C2B17BDEC21E4BD3CF46E3D8264EABD5A02CABD7455FB3D5AEBD33D6057C0BB187BF7BD2038983D60C4993CD8F2463D7CFC8FBD1A28E63DF239A43DD4BAD53D78EA863CEC15B3BD686E2DBD78EAF73D90C0C9BD1A04C93D6EC98F3DACD4A1BD60454DBDAEADA83DD8684E3D96F6833D4A59B1BDC6B3F8BDC0A71F3CD0CF09BDC6A59DBDA406883D58BFCABD7A67B53DF019F2BC222AFCBDE0E9BE3DD8A7C7BDEE9C993D84EC1F3DC0EED0BC5A84C9BDDE06C2BDE08A723C18CADD3C3068063DE858B33CA00C4A3D14AE1ABDA06332BD60295F3C2C2ED3BD5C4A0E3D5EF2AC3DB0FE783C2056F93BCCF835BDA03E393CA880FCBD0C93163D547F62BDB00700BD806C3ABDC655BB3D7232F7BD0861BD3D4C33A9BDA0069EBBC856123D4477D23DF02279BCF0AD78BD609087BCD678BDBDD491363DAE42D9BD4CC7E43D62BE983D5CE0383D889FF53CC0E1ACBC00BFF7BA3A64B9BDFCDD45BD120B8FBD28089ABD7E3E9A3DF0C4B33D08184C3D387DCE3C502290BDA0646EBC9884BBBCD294A83D22D1853DB8F194BDCC8CFB3D5C8B8F3D6898813CC61FF0BDAAB2FEBD24088F3D3C30CF3DCAEAF3BD3AA4CD3DB410FA3DBC6519BD2EE2EDBDA00BB23B16FBE5BDCC66A43D64B4723D0E6CEB3DAC633CBD7C0BD3BD8A63BCBD646460BD10CAB73D38ED7C3D2419B1BD20DD813DD051193DE4016F3D989B273D2C884ABDE89CED3C3E05A03D30F2F93CE89CA8BC0082D83BC4651EBD5ABD9D3DBCFA89BD1038213DFC5A883DFC9FD13DA053ED3DCC2B9EBD264FF43D602397BB10579FBDD8A45F3D82018BBDD6F3FD3DAA59E5BDF0EB543C20BC613CAA81A6BDA0D1CFBB388FE6BD40D352BCC04E733B300B593C8000EDBD4082403C889EA5BC105B4C3DAC6BC93D1E37E53D248BCB3D00436FBC2E49D73D7299A7BDEC25BDBD26B6CA3DAC751F3DC232B7BD00E58E3CAE8C98BD3626F33D2069823BD026DA3CAE6DCEBD309A16BDA285FF3D2CE7933DF062123C80DB063B92A7CCBD6440C13DD01621BD4C12FB3D126EE03DC687D73DC6D998BD1CE3953D803D663B4C694ABD52F2B8BDF8B5EABD54C94F3D246099BDA0B1023C48C6D13C72F4A13D980BA73D7EE8F63D86FFBCBD0079D43CC0A30BBB70685DBD68DCEA3DE47BFC3D5002103DA87C473DF02825BD289D203D5C491B3DD09ED33D5A83CCBD70F6A23D208DB03B36E7F1BDE012B7BDB0B950BD1632913DA007B33C305FCFBC9266B5BDC813183D2E32EEBD9A47C83D808F483BEA47E63D380FFF3DCAC1A3BDE470623DEA8ABBBD32B882BD040C34BDCE41953D90C8913C04896ABD8A2197BD6003363C8048C7BB305B923C8AA4BD3DF03167BCACA666BDC68093BDF433C1BDC8A54DBDE43D8B3D3AC3F7BD182C903DCE98D6BDF0A2863CB8F28EBC62459CBDBC94413DF080C2BD40AAD93B209CAB3BA4982EBDD09BC6BCA61E85BD8487843DF47FD83D887ECD3D40F1A5BDDC65B73D08E7EEBDBCBCC5BD860AF3BD84F8A2BDB062D23C680A083D8C98C73DA41A19BDC8E49DBC3877A8BCA06FA23C10C9423DB42FDDBDD4A3B73D001EFCBDAC4FF4BD92BFEBBD828D92BD5CCA49BDA06165BDC62EFEBDF015CD3C6C64C8BD6AE5A4BDF0C8EA3D5838BCBD94E0C93D204FD53BD8CD963C80A887BBD8CE833C2ABBDEBD38C3373DC0AF04BC7CEA793DD8FBDDBC7AAFEB3D080003BD084689BC949D77BD680C6B3D183F993D502200BC760BD1BDFCC5693DBE58B0BD0AE7B1BD3A66AA3D9A14873D2203ED3D2A51A4BDDA23833D20FD67BC4834653DD8F5CABD3C0938BD60A1D43B208A813D7EF7A6BDE0EAD7BC3C773D3DA079DDBC728BB7BD900A803CA6499ABD007BF33DE07D63BD806D323B649318BDA0EBA03DA8429B3C560FA1BD6A2CD5BD10168C3DC4E3B23DB44A483DD43087BD04C7E1BD9C62863D40B0B2BD50AB9C3C20DC773D008E47BA2085713CE0E290BD2829FB3C20FBD6BB7810A3BC3A93EC3DE0DFD93B40A2583BF0C2A8BCE8BB34BDD046D53DF03F463CBCC57ABD8AF0E6BD648D55BD00A63D3BC873BF3DDC4D10BD40698EBBA092113D78B2FC3C7C4166BDD66BC2BD103C663DF27DA1BD74F9EFBDFE8D943DF80C40BD402C073C40F9B1BBE45EF2BDE8579FBDE045F63C908401BDC00F57BD8854EBBD305F4BBDB859953C28B1433DC0461FBC20D05FBC40F8BF3B5C4D443DF0CEE7BC407EDD3C129DECBD780253BD806AA33A4800BABD12E695BDAC6E683DFE2FD3BD8010193B980B933CA8D6EC3C1277D1BD14C2813D6A06A63D6A8492BD504701BD082AEDBD00A84EBCBC0AFD3D40FD483D64963FBD20F3973C08803F3DD0E74A3DA818FFBD8047EB3C403E04BD80F2E23B74F1ED3D70D3A3BD883281BDC07522BD1A8ADF3DA839AEBC641C8FBDACFFC5BD7821F4BCB807CBBD4897FCBD80F9CC3D689DCF3C6809E9BC70DFCF3D2210A9BD8AAD893D3661FBBD1EE8AE3DC6199BBDCA7AC33D68E73F3D7652B3BDA88CBEBDB4EF1CBD84BCE83D169D8A3D14D38ABD92D4A93D24F55FBD4C622F3D8A66B7BD12F08C3DD47F043DAC31ECBD64FB55BD7E6BB8BDE03CABBB2A30F7BD2C2A78BD38DB3F3DE216923DF8FC66BD503D7F3D06FCD63D6EB19E3D1CAEC2BD00FF093C68890D3DA888A63CE0D7A63C320BA1BDA8A3993DF047143C3077B8BDF03A233D5062FFBC802E87BDC6EAAA3D327D9DBD8C5CED3D103CAE3D00029D3AEA688F3D8407ADBDC86BEC3D425A843D407B0E3BC470D93D82419CBDA0AEB63B78D7A0BCA07C70BC86A7F43D66B6B63D105F793D886AD6BC705E563C9C90DC3DC27BE03D50F711BDF0911F3CA840733DFAD29EBDBA1CA13D0E74D43D90D81E3DA6C7D03D1C14113D0ACBD2BD34CFEDBDA00CB9BC460DFD3DE8C68BBD28BD753D34575FBD2E54EC3D64ED523D16D7C4BD50F5B5BCC02719BB324D8A3DC2F9E1BD30D8A2BD6A26D9BD96BAFE3D40ADBF3B90F6033C741027BDACD33A3D3090ADBC4292C23DE4AFF1BD24C4CABD62C7B5BD7020B5BC6094D23D3A4F8F3D8020383D0A15A8BD900972BDCC4534BD9CAF29BD22A2A73D1866FA3C48B3AD3C00DD6E3B90B78FBC7454543DB01B36BC607086BB2805B03DF01A5C3C2CF9F1BDAAE3E4BD06BFCBBD28E829BDB0AB563D889746BDC05ACE3DDA57813D4086FEBC0C59CC3D88ACB03C94C1C13D486992BC6CD7B7BD58E293BC02FAEE3DE0DF34BC8EC29D3DDAD494BD5A9CCABDD6A9ADBD5E03D03DC0B1A63B5A10A1BD58E006BDC24DCCBD9AC4843D94445DBDD0F91F3C02C28A3DE03F0BBDBE5C8A3DB8E8D13C205D54BD9EBEC9BD782B5F3D10DA5C3DC0AA68BB38F4F4BD00F51A3A9670F8BD96D7BDBDA091633C8043E93AA066C4BD4CE0D2BDA00DDC3C04A254BD00B1993DF498D5BD60A596BB48C7F5BCF0F1843C00AB6F3AA04BB2BB346BF5BD605DE23B72D6FD3D002E4E3CE8A893BCE4820C3D54DE62BD2452403DB8273ABD9058F5BD0085E0BCF4D0ABBD40CEA33D40F1A13BC0E95C3BE06AD3BCE02DBEBB2C63A6BD083CC83DD0ADD33C9E519FBD0C27B43DA08A9B3C5A1490BD78B470BDCE7E8ABDB48CF8BD042894BD8663833D1EFDBDBD4CDCAF3DC4FF243DD807FA3CB6B9D63DB0A2C93DA8A2BFBD7E09F43D409F783B1EC5C0BDC862CBBC42DBB73D3CAC543D20EA8A3D6269D63D82DA8FBDE0C5DD3B2898F53C74ADECBDA6D6C6BD665BB3BDC68795BD3A72DDBD4832DC3C8A04DCBD14EF293D009A863A208F97BCC4FA723D200E373C96B6A93D4C4208BD3476CE3DCC8950BD887EDA3C60C1983B525BCABDA444623DE8F4CEBCC82FDF3C34A8A33D4083223B8E14DD3DCC9CF93D6866A2BC400EFABBE0D5A73D56169D3DF0D42D3DB065613C906560BDE0956CBD189E94BD064F963D64A6943D1899F5BC88E9E7BD5850E9BDD8A739BDC0A70E3B4C6A133D4AEDF73D40F058BBC84F1C3D90C8983C8CD7BFBD00D587BB4C29B83D009E1FBAB0399F3DD0C87ABDEA43E6BDA0E9BDBBDA0EE43D604E073C4ACB97BDFC0708BD48F7033D8E6CFBBD18A091BD004211BAB0B5C63C9C3C293D34571B3D5A94E73D00AED2BBC43618BD20D7E7BB1E9CEE3DEC1EA4BDF660CF3DA8ADE9BDACA0F73D46CCF13DD89DCEBD8601ABBD40BFD1BB1442F0BD00C45DBC542A313D0255FFBD207A46BD4C736CBD7AB3AB3DD09A70BD80299F3AD0BA72BDF0C2AD3DFCBEFE3DA0ACD6BD586C97BD105A1FBD185CFE3DC860E93DC8198CBDE458D13DF4BF69BD4276F6BD00A7B33A849F523DFAF9DF3DBC798F3DD4D48FBD501E653C40C13EBD90B5CDBDE4C3CCBDC8EF0E3DD04F7ABCBC1CFDBD80EBE4BCA698DC3D840C683D003B8A3D90AA14BC1C0FDE3D6A6ACBBD2A59FC3D7E3FE43D9856E73D24B778BDAC03B1BD9CD23ABD0003F0BD1089773C66D9E33DDA77863D50BB433D822CCD3DD0A1F63DA0A52E3DA4D46ABDD6C5A2BD80E70D3D9AEEF23DE095AF3B40E1B0BB7CA834BDB8A91C3D3036893CFE41A7BDE2BC8E3DF0B47EBC4018193BAC5990BDE22E8E3DD0FAAA3CF83AC93D80E9B03CC039C3BC7028233C20B1AD3DD832E53C0E9DCE3DEC79353DCA78F6BD5C3E3A3DB0B520BCD81047BD5C282ABD14C9DBBDC05904BC3671C2BDE895D7BC308489BCA8298DBCD452A3BD98CEB7BDBC67F93D30980DBCB2ED8FBD0236E5BDC8B3AEBCE4009E3D2837983D362A893DDE8699BD587F02BD08217B3DE63CF93D323098BDE0309C3CE06C27BD1ED7EB3DFE5E8EBD2408FA3DA4C8683D70F2F13D5806CD3D0821A33DA4DB643DF817B3BDF2CAD53D3427B03D845964BD9CC0563D8A42C5BDFE39FABD2CDCBD3DE891173D7CE8FABD981447BDF826DDBDC826AEBC1070B13DECCB123DE07A9A3D7C9FD2BDCCA5BB3D44D793BDD0BCD73CD01A7ABC2250C73D98F5EDBC0C4C893D143AD2BDFEF4A8BD805CC0BD8042DA3C2C3CFEBDF050C2BD06FDC33DB827EABC643AA23D3A68CB3DD4C8B53D4AC3F7BD6099C0BC404B0CBD60EBB0BB148568BDE069CA3DE0D9583CA6748EBD58C48A3DD0467BBC08BB9CBD369FD03DE08D5ABD00D63EBC50E5373C609E02BDFC9512BD602DCB3D26249B3D440424BD400D88BC687551BDC821BCBC70C9FCBD8835CF3D6069A5BC98BDF5BDAE51E53D8CFEF03D90B9ABBC8005CF3CC8D34EBD5EC7DCBD903A9D3C30F24F3C80651CBDA0ADD03C7E98D83DD6E2CDBD7CB595BDA046A83C8660C83D2079A1BC503A03BDD49327BDA018A93D846A4C3D7094133CC05A8F3D9CD3C3BD8C68873D888B653DD48F06BDE0323B3D84657F3D5ED1D6BDF03AB2BCA24FB6BD1037B6BCC01FE6BC98875A3D5E6C933DE4AB953DFA32E73D50066C3D00A0AEBD2AC5C33DC0E72D3C681DFDBC661B883D5E2083BDB405A03DAC4ACEBDF82E5BBDBEE5C3BD78F195BC1C57FA3D8A55DEBD38EA94BCE8CE4F3D504B55BCCE74E4BD90DA99BCEE7AA03DFCC932BD5A61FD3D846C053D10C478BCE8D9753D50503CBCD03FF73C785DF6BD14D7B0BDAC40B7BDE0C903BD600C5BBC801CA33DE8E3D63CC863413D30ED36BD76DBFCBD0A45B03D04DDF03D6EAF9A3DF470FFBD10F6513C28FFDA3C4090CEBC1803A1BCE8369A3D908A5EBC90CFAF3D6028B9BC002B91BD4233BDBD6802F8BC607858BC4C2FAEBD501BF23C68EBC2BC0E9A9E3DB218D3BD3CC7E43D00B9AC3AD872BF3D96388FBD486D8A3D1E18B43D72AEC83DAC89B73D309EFFBCC803933D56079C3D008D7B3A48E73D3D28F82D3D24BAADBDC80A653DDC4CD6BD74A0E1BD1035073C38D6C33CDCAFF03D5A868BBDD807E33C18E430BD0042703C66048D3DE42F233DC66DCABDAA5EE1BD040BC83D60D35C3D70897CBCA428DABD8C6F9B3DEE85D4BD48A04A3D94F86F3D287FD53C1CE38E3D681322BD364F98BDE67597BD30FC90BCAC84B43D70103FBDA456383DF00A4C3DE005063D28DD62BDE03D34BDDA71E7BD0C15A2BD30F4E43C86E8B53D50ACF7BDA604A6BD2CA5B13DE2A7E3BD607DF43CC225943DE0F6783DB079BA3DF02896BCDA80AFBDC4E5DC3D64C6333DF8E4FF3C34AF30BDEC5780BD8831EABCCEEEB63DB4BFEABD7C3973BD9E46963D081EDF3CDC1C1BBD0446FE3D901B953D2886A4BC0046453CA0BE6B3C8E2895BDAE1AF3BDD4DB103D7E4BFDBD3CDA55BD141EF2BD34E0593DC848FEBC7AAAB3BDDEE69A3DD0C07A3C1C0A27BD8E14DB3DA02DF7BBBAF9C63D8050BF3BA6E6CC3D9454F0BDB0EB20BCFE2CBFBDCA30BBBD9059EE3D3069F93C98A2EF3C70BD64BCF4FF8FBD68265E3D1096FFBDB6C7E4BD121EA1BD08A736BDACB6B83DC0EE68BD56DDF4BDECF50FBDC237DBBDF0593F3CBE9ABBBD7837FBBCDC14283D08D7D0BD908FD13CCE218FBD9E9DDCBD4407753D8C430BBD6068C83B0E71E7BD3EB1C2BD70F4E63C9037AEBCC86A3D3D240719BD2CFB31BD24215BBD0C9B6D3D085583BD7687943DC259AC3D78B140BDE4C78A3D7028EDBD243606BD7E07EFBD6043303C8C073E3DE2C0B2BD380D93BC5882CEBD606C8C3B704F463D908742BDB42C12BD48A8353DB054443DF0E9F3BD18D3D1BC5C1EC7BD2830C5BDD4B56B3D7CDABDBD08E5CF3D604CF93C90C17A3C7443C6BDB0FA153D6AA7863D8E54B3BDE814C5BD7282E13D906EB4BD84AD313D5456FDBDB056B53CE02ED1BB32E9C73D30280ABC8AA9D7BDD0293A3CA0CADDBB2EAFEDBDFE19C2BD30AEE13D50EB45BC6EC4B1BD38A18D3D7895593D5659D4BDE8BCF53C8EDEB23DE0DA0DBC3C757A3D9034353C0058BEB828B886BD3C3BECBD7853DCBC4855FD3C7866F6BC1A8296BD4249DFBDA4C0A2BD780C993DD8302A3D08CA9D3DBE22AF3DF49AC3BD326F86BDD05EF03CC01E5FBCA01B903C16E4E83D52FAD5BD9816C8BC986797BD1028E7BDEA50DD3D1671C6BDF420B9BD300EBF3CE8B5CBBDD03D13BC40A3FFBD38B53EBD1C9B4BBDC05BD3BCEE94C83DA0C8BABDA02340BC8C78543D1E6DD1BDA6DCFFBD56C78ABD3896903C52C7BD3D6E6AE83D8C5DC03DA488AE3DF0BC5B3C142F703D86C0C6BD203D54BC0CAF553DF867BCBC164EFF3DA0FCCABD0802253D08335EBD74E67CBDC052CF3C6E15B53D005CC43A84E22FBDE63AC8BDD0EC193D9076983DD6EEDBBDE89FC43C1EFDE53D00AA403D46BEE6BDC838D3BC2037E53DB08F90BCB46BC9BDC47B00BDC856253DB0E96ABCB4D5F43DD04D3FBDD04103BC0687C6BDB8B4B73CF03EEB3D28C4C53D708F1DBC401040BD00ADC23CC80A7ABDFE3EA23D1A5BF73D364CBD3D24CB6FBD7028E83D6002463D4058D73C3C251E3D38EDED3CEED1AB3D6082793C00D208BA863DD3BD184DE8BC4097D9BCB81EB13C2E8ABABD3C5F133D40A409BCA82744BD960CF23D14A20DBDCA95F4BD0E31C43D50CBA03CD09C39BC08F6FC3C984AC33CF00A15BC4070DBBC8A449BBDCC558B3D30DF563D48CAE63D6C6E573D78C5B0BC1018293D342DFD3DE2239FBD98E3B8BC70A83A3CBE6ACDBD2A5882BDD05FE5BDDED6C83D0E57B4BD787C06BDC0FF843BC0FEB8BCFC06083D2C97E43DC8826FBD2070B1BB54DE0B3D2A99B0BD146E5E3DC0831CBBCC39AD3D10D6FBBD9C776E3DE859ABBDDC027C3D5E8D883D0C9E083D80EBA53BA0AE1D3CD62CE8BDA454943DD09FF6BCA053B2BB30F5EF3D527FC6BDB46019BDB89B1BBD40455C3DB231E23DCC3606BDD41E383DC8829ABDEC84463D404E3DBB600E77BCA63E8DBDE4D1B23DEEEAB6BD10EE70BD3CD1603D7EF9F33D7A759DBD76FE8C3D60BC063CEA9BB23D14708C3DC0BD403C7695DF3DA44413BD2EF2D0BDEEF988BD14319BBD5CC5D33DF035753D88AFA03C682CB9BD3406E63DD025D63C4457CFBDE09BFFBB8883993C96F0CB3DCE5FF6BD784940BD603B98BD60A197BD94C70F3DD08E99BD983F7FBDA863E5BCA4AF3ABD70F3593DE09BE4BD8A6EE5BDD49A1EBDA839C5BD9CDACDBD08F628BD6490703D908981BCCC4AF9BDFEB1813DD8B5183D14576CBDE844F63DC493DDBDE28AB73D78C68A3C86B6B73DC44C2BBD3692E03D7C4197BD80D8D33DFA98FE3DD6D3BB3D70F0AEBC6040BDBB180F4FBDC89059BD5AC7B9BD288392BC2AC886BD80C864BC24179ABDA8683CBDAEDCE03D7A55963D9646A8BD469F973D2C6B2F3DA01D553C0CFBDD3D38CDD63D4AC7F3BD12E2993D5894B53C240921BD8E2C853DC071E93B9CEBEABD00D6803C7A61F03D6200E73D5625B0BD3E22BD3DA043BBBBD0D2473C1000443D70F212BCC083603B7C3EA6BD6A9487BDF2D29A3D3404BA3DF65798BDD6CEB33D285DD4BD845D6C3D602BA13D00869839FED8ADBD102578BD5E07DEBDF4D694BD708A42BC989CCBBCE697E43D00200739243B533D4CF38B3DC828EDBDD0A753BCB6D4EABD904A00BC10FC2E3C8AB2973DF8EF523D06D6DA3D7AEB8E3D5813B7BD8CE9BC3DCCB28EBD9C0D2BBD8889FBBDCC15C0BD0088B4B910CF14BDF6CDFD3DC8E0E83CD08C2DBD6CDE2BBDE094CFBCA45A1CBD988CE4BC30DDE33CA08E7EBC2C2A453D860CA9BDE85DC6BCDC52F7BD1E5FDABDE21690BD68BE8DBD2072753CC45D5CBDB617FF3D2AECB43D50D84B3D78FF423D80CFAB3B76B4E53DD85BBFBD20298E3D54F35F3D00A0C33A26BBD6BD14BF273D60648C3B5AB0D3BD4055F63B506BD8BCC040CF3DE02DB2BB8AD2843DB4AA173D382ED6BC38C5BFBDBE6CC9BDE0C8083C129190BD085AA2BD98D9D43C2609DE3D4C144B3D6C53C23D98E480BCB0E3AD3DECC42A3DAC5479BD32A2ECBDFED1E63D082F8D3D209F32BDA0DC093C36E6FE3DE07926BC80FA82BB6C2D543D68DF47BD8027853C004830BB3698FEBD3CDBA03DDC408ABD74E5BDBD08A7CEBCC010AE3B5845433D08C69C3C18B5FFBC00EB833DC0FEE63B50EE713D3401D0BDE890FABC4AA8DEBD8071F6BDF84FA53DF845FEBDDEFBB6BD50EC1C3DE09D8BBB701D753CBC34C03D8873923DB46DC3BDBAA7EE3DE066663DC0E4793B5887023DD82EED3C6CC34B3D3C8362BD5A64DBBD84586CBD2887D53DCAA2923D500DF3BDB836AC3DE0E4B13CC6F3EB3DC0AC09BD48FA863DFC96DEBDA4FD2FBD80DEC63D747064BD6CA9D33D828F893DC02CE53D88C58ABD7006563CF06CFF3D504DA5BC4A06E73D66EDE23D2E85BABDE8CDF33C16BD9BBDB0BEA93DB245D0BD48B0F3BD16A9843DAC4EF43D20D19FBCC4ED253D38D7BB3D2851EFBCD69FB4BDAE5ECB3D8071DE3DB6EED9BD6C90EA3DAEBBD23D02F4D4BDC09A5F3DA0AA993C300061BD0AB9B9BD6E13883D409512BC5038E83C506A31BDE8558E3D8CB0BDBDB09B1E3DF4617D3DB0DE58BC406DA6BBA266A2BD6A9FFE3DCC3C923D28ADAFBCF08BCDBD64D047BD4091B4BB208F7FBDC0FB84BC00D3ECBC4C73DFBD00C692BDC06EDEBB08BDFCBC7EF28C3D2040AD3B669ED3BD8818833CA051763CFEB4943D9EFD88BD182B563D9E09E83D98EA25BD3C07F6BD3C11CBBD3295CDBD043BCEBD1840F2BD40C32F3DE4576F3D0078C13A8E8DA7BD4041B03CB40BC0BD2874F7BD78DFC03D7434A7BDC04AD33B4014403BEE868E3D00F4E83A9005F7BD28F6833C74D17CBD089F763D505DA63C10743FBCD89FDEBD8A378C3DC0E01CBBE0D69B3C201B363DB606CCBD20156ABC0AECE0BDAA1B8EBDC0EC203B2C47733DE277D33DE456903DA46F34BD562F843D4864AD3CB82268BD502E003C00A0F13A8CFDE43D50FDD5BCB8DC81BD4C340C3D4E3AAABDA02C0ABD98C3D3BD9A0ADC3D54C4203D8C86B8BDA0E2F5BCCEEAFBBDB629EEBD08E92B3D14C12B3D0219DCBD24BB71BDC84DAE3C00627B3AACB53C3D00A79A3C18CF47BDD48BC73D24AC98BDBA71F1BD704D023DB06E2F3CC470433D883A663D8C7CD1BD984AFA3D0C59A53D90D5FFBC78DCA23CBCA6B0BD9864BC3C62B2E03D2035C5BD8C49C83DF692BF3D56AAA33DC0FDD6BBD05593BDD059C9BC3C8930BDF023293DD894A3BD96C6BD3D7064E2BC04EB72BD7AC4F3BD1281B8BD9A7BE83D800760BD988FB4BC7CAFC8BDE037293D4801F63C30471ABCF07B97BD3C7387BD50E7763DA031D23C62E2FF3D009E07BC18E2EE3C8052D3BB4088803D469FBCBD7C22EABDF86BCD3CC6BAC0BD786270BDF8343EBDB070483CD06A553C58EFC33CE0DDAF3D0CA1083D1C2B75BD9444323D9C8A63BDC44B99BDE00967BD44B591BDE8382D3D084FCABCB074F93C80EFED3CD42A693D3E02AABD70B6873D7E02DFBD7665A33DB0DF9DBD1897D13D000487BBE833ACBCE05BE53BC0C0EB3B50C9C1BC5096D53D50FCEEBC529DE53D9C3957BD8A42DABDE4A570BDD665C23D6832543DC89D4DBDA0BDF93D0618C7BD8E37D83DE0B058BD109935BDC025C83D487BA8BC48FBF83DA8FCBCBC50EA143C08D3E73D5CA648BDD889933C0001643DDAF8DE3D248EF43D1C2CB6BD1CB40D3DB0F1D83DD823DE3D82F1EA3D0CA843BD3C28AF3D1C3F57BDB873A63CF0E1AA3C4C03FFBDF01833BC4C34CA3D56BF9B3DA866EC3D3EDDF33D52A7B0BDD0AC3C3CD07E7FBD807ABE3BD436573D2880473DDE6ACA3DE8E5C63DE4AC37BD8062A63A9015AF3D4879EDBCAA28E5BDB095873D820FFB3D000187BB1C848A3D40CF0C3DF09C623D604EC13CDEDBFBBDECA3C0BD20924CBDF08E763D9205E43D3255CA3D9654E53D38BDEE3DC0A64CBC2856C2BC80CE323DDECDB0BDA6ACE63D943DCEBD1CCF213D30090ABC6AA4C7BD60D9673D4C66FFBDE0FCD8BC7482F8BD80A9F83D6026C13D885CB03D80E82C3B40C4E2BB5C8297BDC463B83DC0CA323DAABCA0BD107360BD824FB13DE4C68D3D52A0F33DD40D833DC898F63CC0470ABBB069DD3C60A4193C20C3B0BD8C8D733D682DED3C8E10EA3D600F4B3DC007BE3B586355BDB482CDBDD00BC2BCC206C7BD2C27463D20B9F23DF407003D44EA40BD20EC0DBD44A5673DB06A47BCEEDFA6BD100D19BC00D3383CA49E1CBD0C380A3D902C28BDD0AD3FBDAA86B93DC0B6B03B9426503D265FAABD24D40FBDA4A1903D146A55BD8200E63D0E9B963D1E27D93D3419F2BD90704F3DB0C4F1BC64A6DF3DF054693C1E1C98BD2C6F29BD882C123D4C73E0BD204F2FBDF0525BBD503357BCA479E7BDD239E23DD613A8BD7894A03DEAC0923D1C00FFBD8027A13C3038DA3DF653D53D92FFEB3D6AEDBFBD5020143D70FBADBC8E58B63DB49F9BBDE8B1613DF050BF3D30AE1BBC800C5E3D10304C3DDCC0BC3D949218BDC0168B3B800FCABBF48DB1BDE8869D3D966BFC3DD6FAF23D04DDBD3DC0F3AA3B305DD13DB0F691BC48018A3DB6CE85BDC8C9EEBC041EC2BDFA3689BD60ABB5BC0006873DCCE0B6BD28B6D13D3094F13DF8514EBD0042ACBBCA3A9EBD3EDE8ABDE24EC83DC09D273CA8E2B13C12A0B33D9805B53D6021D83BC219FB3D60D0B0BCC02A7C3C38CD693D04EF3DBD3E3E863DE00CBB3DE6ED91BD10B04EBD1018F0BD0E63E33DA064A93D94EDA7BD103283BCC83D84BC8C4A7FBD3C57243D9273CABD50720EBCBABA953D78E6A33CA0BAE03C0029053D48DD113D50706BBD3493FA3D406900BBFC4FA33DD62EF23DD82FE23C524A9E3DC43955BDBA88C8BD7031BF3C8CCA4D3DA028F13D68A32C3D60B8F9BDEE818F3D20324A3C047A69BD10BA753CACDF3C3DB67CB83D100664BC70186D3C4C21273D00CCA1BA780EB2BD3468173D0482523D7074E0BC6C57EE3D82BD9B3DE61E853DD6C9F5BDC619BD3D7828D33DE603ACBD2A7B993DF47DEABD2039E23D201DA3BCEC88CABD60E7293C9AE0A7BD58AB02BD2050ABBC7EEE943D283BF63D6062D33BB042B1BCC04BCEBC8CFDA33D5854E93C642E81BDF46F193D166CB63D98FEA53CDC0F553D4A77953D2001FA3C8C1E1E3D8E48AF3D70593EBDC059383D2CC3C7BDD8A8453D548812BD304B6EBD8C6D10BDBA83AC3D48E039BD24E7023D8AB7873D82F3ABBD309F253C6E7AC43DA016813C7856D8BC3CC681BDE8C6E7BD9CA066BD6C80F13D0A15A13D883589BD805E193BDAE0FFBDEA52F9BD842B23BD7697AFBD7698BA3D3C04653D46DBABBDB893CA3C026CDFBD00298DBCCCE680BD7E50B5BD7CBAB33DF453ADBD60318ABD003922BC08C3633D38B473BD646F833D76DEA83DE012C6BB18BD8E3CFC3C0B3D465AB53D00B3B3BB26E8C4BDAC31AABDF43B8BBDF89AE8BC20E1953D86E9873DE05B2BBC304A18BDF044BABD78C6983D6C55463DE09C9DBC8C14223DDC20553DE038CCBCFECAC7BD204980BB3A4CBABDD048D7BC58EDD73D50A91CBC4002193D888D17BD7218853D70F0153C58386EBD04DF07BD90C6EDBD38A78CBCB0CFB1BDEC0AD4BDD8C55ABD2046FDBBC02E18BCF00108BD78A5D73DF08A9B3D5CDB5BBDDCC6123D045AB0BD6019B83B5CC1333DA8455BBDA0EC933CB62AE8BD5A75C1BD9EC0F2BDAAFF803D6E6180BD243040BD4C1B96BDAAB29BBDF08B59BCFA91993D589F193DF0C045BC206E603D78CCC63D70F0B13D64C653BD9838F43D88F5A93C5C76FA3DA862C0BCD8F7E2BCF8919DBDFCA584BD783C2D3DD0D8E8BC869AA4BDD0C5773DEC29A13D026EA6BD242A77BDA476A6BD200CB63BEEAE9EBD9872D23CD22E9F3D7010FB3D0CA24D3DAE8F9CBDA856F33D7820E83C6CBD453D0A0394BD0AB1D3BD1CA5913D841D503DF83F953D065BC03D046CFFBD180E84BC4ACC933D1045C7BDF20A82BD96F2E0BD6E56F3BDD883FABDCC3E9BBDF680F8BD6AA4B53DDC7C303D58CDBB3C961FEBBD80C90DBBB01309BCB839293DEAE9AA3D64DA95BDD2CE89BD781EBB3DBC7CF13DDADC843DCAA591BD6C9CE1BD9C71443D88A8F6BCFAC8DCBDC8C45E3D54A2ACBD18FEA93C2C5717BDE8E681BCF044DA3C7087B5BC205EAFBB080CD0BCAA8DFEBDB0A014BC0037A13DB61BB8BDA465E2BD009BDF3C96ADF7BD24D50A3D8C326B3D8C101A3D2CA5D1BDA09C2EBD1E9BDC3D8A7881BDA66DF8BD8C72F53D086D2EBDD80A70BDDEE1C93D806EDDBBC8BF603D68760B3D403E82BD34C0F43DC0DE983DF8FD283DF09BD5BCB4C7373D0C78693D44BE663D2878BE3D264AFEBDEEB7C1BD0433F3BDA64A9B3D12B5B33D0ED2E9BD704C593D8057983B2C4868BDA00B263DC2AEED3D8608EA3D085385BD80749A3B400D633D286B1ABD3C37103DE093E1BBA8B1F43CBA10B6BDB8FB92BD5028803C4ADE92BD40BAC53BC0A1C53B70E286BC2099213D309F423D489673BDCE85C93DE8126C3DD60EE1BD2034A4BB005355BA9ADF983D5C11253D5C4CEABD7603A13D2CD5503DA8FD91BC7CB7EA3D18E4FC3C08163EBD6823D4BDBC54D7BD4ABDEBBD68693CBDF4EF6CBDC89E90BC30567DBDD08EC9BCF027773DD4DA663D98B7DE3DD8B5F0BD305F27BDCAE58A3DAA2A9D3DCEC38ABDE6A9943DBE9197BDA4AE503DD4EC5C3DA02012BD0EA68DBDA0BAB2BBB88CAA3D368F87BD465F99BDA0FAF83DDEF0E73DEE82C43D22D3E8BDC49A47BDC2698E3D6AAAA03D7823D23DA030E5BC84DEA7BDA8F2B13CDC2D03BD68AADD3DF2E696BDB864DA3D44626A3DA0D96EBCB4D53DBDD8E3D13C9C139E3D"> : tensor<64x64xf32>) : !torch.vtensor<[64,64],f32>
    %2 = torch.vtensor.literal(dense<[-0.0427150875, -0.0354626179, 0.0847943872, 0.00412926078, 0.0690201372, 0.0550561696, 3.92362475E-4, -0.0514254272, 0.0437318385, 0.0303463638, -0.0164358169, -0.122053385, -0.0676909983, -0.078821659, 0.0862993449, -0.0516915321, -0.00158816576, -0.0641555637, 0.0816639959, -0.0489831567, -0.105468169, -0.101965025, -0.112484798, 0.0455121696, -0.0574853122, -0.0390354693, 0.00731255114, 0.0199833661, -0.114156276, 0.0859870762, -0.0625416785, -0.0369192064, 0.0509960204, -0.124285102, -0.0438842773, -0.00511305034, 0.0529999286, -0.0996945649, -0.10155952, 0.070100978, -0.0901690125, -0.0429788381, 0.10704571, 0.0166448206, -0.0637430698, -0.00591886043, 0.111291423, -9.805840e-02, 0.0422494113, -0.00726044178, -0.0878517181, -0.0977176278, 0.0403350592, -0.0271027684, 0.0800922811, 0.019776091, -0.105331138, 0.123016983, -0.0679415762, 0.112732142, -0.0198132545, -0.0642028302, -0.0545676053, -0.0948789567]> : tensor<64xf32>) : !torch.vtensor<[64],f32>
    %3 = torch.vtensor.literal(dense<"0xB20FB0BDB09E7F3CFC2CFBBDE85B253D9A3B98BD944C423D3E1ADB3D1C515E3D3CB7A8BD8EA1BCBD88EEE4BCF01656BCB04EB9BC86D0B83D9ADCD23D00549EBA9A338E3D161ED93D3439FEBD7CD8EFBD787FFA3C5CB9D03D320DF6BDCC8A83BDDCEBEDBD202ED6BB002F6B3D4AC18EBDB64ECBBDD83D4ABD2429D43D3806D3BDF0BE1B3CF4C956BD2025C9BCE4C6353D7435DBBD3A4AC2BD304D5FBC78B1DE3DE0E6B13CAEE6AB3D6E4B80BD80B9DF3AB8D766BDD854103D64DEF83DF40DC7BD4823373D5635F73D2687EC3D4C943FBDBCA1923D0244EDBD58F05FBDB01DB03C0EB9F7BD10579D3CCA69E5BDB24480BD001D2A3C047140BDBCC835BDB61CB33D603189BBB213ADBD50FB5E3CFE5983BD121BAABDEC94A3BD4C2A9C3D0082A8B98479BEBD4CCB0FBD34891FBD6083293C34D4583D76A98EBDD487A2BDE0EFBB3D10FA9C3DD03367BC68C937BD60511D3D986281BD40D486BD6449C13DFA04EA3D2E8DC2BD00036C3D006A033A209B7D3C80D2033BBCAEFF3DE077DFBCF8CCEA3DEC36863D200D043CF03F113D1E70DC3DC4FF073DD8B09C3DA29DBD3DFC49413DA086913CF0B32EBD70F72CBCFE3B80BDF659933DC8D0E03C407BDD3B4065FF3CE49E45BDA8E1CD3D6258D43D70F470BC107E553D90EF5FBC404788BCA0111FBC06F9B63DC01B2D3CA05BC53B62B88DBD987C3B3D1655BDBD6214DE3DD28A88BD48BF6E3D683B213D6A56FCBDE895EE3CC03189BBD090BABD407C21BDD0EEBFBDECE627BDD8D6843D70C6FB3C98A898BC482A2F3DB441F7BD3AC59CBDB4AD703DCA2CC43D144FAE3DB6DFD1BD74A0803DC29FCB3DDE32ECBD9654EABDA6C6FA3D58ECE1BC52D69EBD80EC8E3A5C8757BDC029813CA020C03B4A7CB9BDF656F9BDE49B343DBE96D13DAC76723D583778BD185FCD3C34B996BD003CB23AEAF4A13DE63BDA3DBE7AFB3D8CC568BDE48B3A3D8A97E33DEC432ABD3A0BF63D8AAA9FBD1CCB44BD1C06C73D50B0D7BC1E3E853D946B3A3DBC77923D482DB23C4A599A3D3238FABD5C3BB1BDD8BE743DD261D93D608C913DE800C73CF49A8D3D7477993DAE97E73DAC73F53DEC1C023D70C6DF3C2E7EE3BD587C043D802BCD3AC46B693D686F89BC5ADB82BDB451CB3D6892AC3C1466FD3D4430263DF07246BC60498EBB14A735BD7CAA01BD34F9DEBDDE0EA83DA239A2BDCEFFEFBDF6349CBD5A42A53DA01B853BCE61DD3D7CBCF2BD2022ADBCF83690BD60FD52BD4ACCE9BDFCF187BD3032663C6443A1BD08B350BD980763BDAA07FABD008BCCBB5037F43DC829C63DC8AF913D22CE8B3DB8C785BCDAC5F13D9CBDC03D426BDB3D689BC03DF0528DBC1857C13CE82EFBBD100628BC5C50B23D309E1BBC00E7ECBAE0C30EBD84621E3D28F0E3BC7452043D90821F3D78A4D13C3CBD8BBD9C456B3DA0C660BDC038993C56B2E13D00C3C1BC8272A03DB89EAFBD607483BC5A6EBB3D30CA40BDE033763D4C465BBDFC01033D7CD74BBD409B8EBDB86D043D986D533D9280E63D06A2D93D8CE6DFBD286E923DC09709BD1AD7C4BD800BFBBCC0E26CBC7A05A1BD8862F0BD1803093D82F792BDFC03F63DF0B0FC3C90B4EC3DBE47A9BD90643E3DB04BA43CB8409CBCD0232FBCE068F93B824094BDB876F13D9257F23D5680BE3DF4144CBDC007A3BDE06D0D3C5626EF3DD683FBBD58BFE8BDD0C73B3CA80E96BCEC70D6BD3097743D1CE0EE3DE0B513BC707E7CBDE8CDE23C522DE2BD6CB316BD2C19073D24990B3DB0044BBCF00BA1BCB4837EBDB8AC34BD804DD5BABED2C73DD858A53D54270ABD30A7403C362AFF3D823CCFBDD023E3BDC8F162BD6689D33D36C8993D0C4556BD7AF78CBDA863E23DA0A9E83B34228BBDC0C692BB481F043D00A625BDB4A838BDBCDA3E3DDA4ED03D4286EF3D98359A3C3A67ECBDE41F36BD109B913C6CD690BD7044133DF03246BD38C2FDBC4A47EC3D8477B6BD64D4453D2493D33D8897DCBC404628BD00B4BD392A04B4BDEC1D663D247B5F3D1E27C2BD60DCE73B20C81A3C40CABDBC6C2C6BBDA0B0C6BCECA74FBD501093BCA864D0BD0828923DA06B2A3C745A733DC071FEBC00AC9A3B58984FBDF866F03CB0E1B43C1AB2D1BD2CD1503D3E0A823DD63C8EBD30ABE6BDE017FCBBD005903DC038E23C907F6BBCA253DC3D9279B63D48BACA3DB0F6FABCA0908A3C72878DBDFAE7B5BD6894B9BC503ABA3D0233BEBD1CABA33DC87689BDA23C873DA2D8D63DBC55803D0096D63C1E45CD3DD08C2D3CE87C69BDC64BBABDE0F8883C2E3796BDF01EE8BD60A81BBDEC0D2CBD4A56E53D04156EBD2C1A403D160D9B3DAC8FC4BD00C64BBD5859B63D904C913CA40998BD92EC88BD9CA5A63DD8B108BD8CD8553DA05152BCD87FD03D128280BD38FAEF3D3E15A53D70851DBDF07D62BC1E0BF2BD4096823BD0322FBD367BFDBD4618A93D1052633D3C60B53D2A8CA0BD8049F2BB9800E3BCA0071EBD247112BD54583DBD7E14B73DB0E975BC201029BC30C7B03CE02D803CF282B0BD80D5B6BAA669E53D5028923C609EBBBDE0464ABC40CBB13BF478813D000873BC0C8334BDE0C1333D387957BD589EBB3C74FEC83DB0575BBC4482353D34371EBDDCFBC83DA09CDBBCEA4ACABD926BBABD4072CA3B04497A3D88E2923C30E03DBDDCD8C8BDD0B3CBBDB08403BD805FDCBBA8C8ABBC60DC17BC88D1D6BD1828E43C0EDFD4BDA00FD13CD27E8EBD12FCC2BD0074F1B9309376BC843EA2BD0ED4FCBD3E10DC3DA2C7853D7C1856BDF8A5B4BDD0DD2B3CC0E3EDBD80C2AD3D40373CBDF818C5BD00000F3756F0FC3DA8A497BD200AC43D4C4D893D5023413D928CF73D3EE8933D7E619FBD009C56BC20E2BDBDC042F5BB305FCC3C7E0BA1BD14135CBD2CB98ABDA0DDA4BBE0266F3D3889C5BCD05A1B3D90B2A8BDDCE673BD5895ADBCC0694ABB2C6C11BD6023643CC6A0D2BD5651A93D9875AB3DF8B4FC3CFC538C3D004AD2B9646DC5BD3C15773DD812773DB0593BBCEC7D293D2C3466BDE0EB7F3C10A6B4BC96909ABDFCDD873D8838D7BD90D48E3C885EF6BDF0EB78BD8C44293DCC69D83DDCD12C3DE85D80BD502536BD365180BDFC9225BD604E63BD00F9343BA0859A3CFA31E23D00AC193BF0B3D6BC704BAB3C685F253D0885F6BCBCEC7F3D7414613DA0C144BDD076983C4C684F3DB0381F3DBC8ADEBDBC6DC5BDFCA3A23D9ABC8EBD404EF7BD5C6D383DE0CEAEBCE6C9BEBDB890AC3CC03F133BBCF1233D4CF71A3DF07D12BD1040723C6057BFBCA8B9DEBCA0DAFF3B146376BD107FD43D26BBFEBD206EF9BDA4B5E5BD2848873D40224E3CC8DC963D24505BBD28E2FFBD18F3C6BD349BF4BDB4B76A3DC2A4F4BD68DBFB3CF0BAFDBCB8F7C5BCA001D7BC0C3829BD449E673D2084AA3D3054EDBC9CF0F7BDA025D93D9618E83D707A3C3D6249A6BDF03F733CE2CC8E3D00F594BCF4CDF0BD809C54BB60544B3CD6EBCF3DC079AE3CDE37E23D92BBF43DB0E5333CEC864ABD8239B03DC884FB3D8049DA3CB440FDBD24F57A3D209516BD3CB47F3D8CCA14BD18CEC33CAC1CE6BDB238E9BDD846213DD0393DBDC8811ABD8C3624BD3AD2B7BDE0F8FCBC665AF73D8096C9BD48CC8B3DBCEC703D104572BCF8DEADBC24E19A3D30D6C7BCC08734BC0457BA3DAC2F5E3D183C05BD0071E23D2C3622BD800057BCD8B3163DA02D4EBDB0A19C3C9A00EFBDE0FF113D4A3CE23D7C54D43D38521CBD4E4CEFBD2432873D48205CBD023ED13DEC235C3D24B9E63D2438C0BD96DB903D2095653D8CA9B63D600780BD80F7D8BC18DFBC3C4CCDF3BD709D1A3DDA61E23DF813403D2023513CE853F9BC4CA4353D38D037BDFA3CAE3D1C4AB83D9CC3373D30FF16BDC02576BC402A703D309D56BD186B9DBD6EFDA7BD24AA973DFCD330BDBE1E8E3D088F5C3DB81AA23D08AFBD3D885F4A3D2C66B5BD749DF53DCC30E83D20A0A13DB099A6BC88E159BDEC19EDBDA03C833D9CBB923DB886EC3D5032ABBC54F5AABDE49D0EBD10D22F3DBA19D83DE8479B3CE4A717BD940ADE3D98429ABD10A0E13DA80355BD4C98CBBDC06E993DC27EB7BDD815AEBDA4F06EBD9235DFBD6262B03DB0D85E3D8E27FEBD12A0FE3D1A12BBBDD2418ABD80461C3DE01DE43CE868E03D049ABBBDC013F03D68F271BD1896BC3C02A1983D900E8B3DB20BC0BD1C45C93DF43E1E3DEC50C33DD824DD3C343EBABD6CFFC93D70BAEB3CA0B0E0BC0088DF3A1259E1BD1CA2663DA0671F3DD8B88E3D22E0D23D94A1C23D324ECBBD0AC0FEBDCEE8F3BDB056A6BC1000F73D6075B7BDC0D957BBA0710A3C40518FBC30D7783C14E0C0BD0E15FB3D88A41F3D28A4CB3D60A85D3CD2AECABDE0BDCEBCF4345FBD0841C23CD2EAEEBDB850F83C34EE0E3D8E1DF73DEC6A50BD9E9DA2BD1C31F43D986AE43DE2BA94BD844C31BDC0E59CBDECFC64BD5809EB3DD8C7A63CC04411BB44F579BD38E5F5BCD844A3BCC030E6BDAABAFF3D2C4EBC3D244F143D3C0E303D0055433D40C41CBB9C12643D90D131BD528C96BD5235AABDEE33D9BD3CBE2BBDA02C89BB2058653CC66B9F3DACCC433D5C935FBD6EE29DBDB6B9BDBD2A88E3BDB042003CA8FBE93C2A7CB3BDA4915CBDCA48EB3D30B350BDE00AF4BDA867863CD81F603D40327A3C84F4FB3D302720BDA80894BDB892BF3C30B29A3C30C3C0BCC876A0BD22A2A83DB8F0F13CFCAB98BD54A5D2BD800D333BD002CE3D9C4D36BDD2F6FBBD16F9DE3D4C5AD2BDEE7CD03DBE17B3BD4803313DC027C1BDE80DF2BCE05987BD8005D13C58431ABD70E016BCC04635BB5CB348BDD03D95BCF03427BCBC39823DB844A83D4ADBCE3D6E8AF13D786FBDBDAC19DABD0EF1903D4069693D98D8D0BC7061CD3D1058943D40579B3C286F27BDD882863DA04C84BD109FD8BD50B7403C8257CDBDC4C7023D78740E3D3082223C5066F7BD30B4663CD0BECE3DC0F6CD3BB05A5FBD628C9BBDC2C1C2BDA807C23D249865BD96F7B6BD387E813C341B26BDFC3B523D44670A3D426FDDBD704CE0BD10D1C93D043FDABD6416573DDC27DB3DB23CBABDC875643D70467B3D7C3588BD20ECE5BCB2F39EBDFC7A193DAE2CEBBD3035BD3D28FB35BD02BCCE3DBEDDCDBD70F29D3DC83D083D3ACF933DC09B23BCE0BCEEBC6C79C4BDAC6A00BDE05828BC4489E73DEA88BABD70D24EBC405E3CBCE6DCD9BDF477593D000D583D342E63BDD24983BDBCE9693D00A5063C28D7DC3C986775BDF0127DBD0038D73CC206BD3D7E40D9BDA02259BD1833D03C744E4DBDD0CF0F3D70D5D93CE4F657BD2249F33D6C1083BDB4B1BB3D200673BCCE75DBBDF440B6BD4478A1BD5A009CBDB43780BD1ADDDFBD2083E7BB90133ABCB04C813CACA367BD243B9B3D14DAFE3D76C6A43D803281BC4CE43C3D0CC86F3DC0E05F3BDAFCE53DAA9BBDBDF47F133D9AD6ADBD003E78BA580EA6BDDA47F2BD64C03FBDE00D9A3D48CA8C3C980CD43D601A18BD0C6CF63D1CE5943D8A4189BDD219E83D044CF2BDE45BD0BD62C1C9BD80EC5EBB2C56EC3D70348FBDD02A523DCEFFEE3D401D13BCB4D57ABD2C1FB8BD28DBECBCCEEBDABD6E9683BDA88AC4BCAA0AF6BD1046953C68F39FBD9A9AE3BD306D053C8078EE3C184A99BD00AB373B3E6AA83D044863BD2CA6873D64A0C43D84BE12BD48506EBD90B04E3D603251BCCE88E5BDAEAFC8BDD0FE71BC4CE95E3D424F983DE033D73CEA45E5BDA03AA23CB40810BD00D8413AA4B0143D2822D7BC2853DABD7EEAC4BDD0A6B53CE0B4CABCC0A9AFBC0AB5F9BD42519FBDB800913D08CEF33D10B2A43D8003EEBB8259B93D40ED5ABD2C37CABDA47880BD20F6A5BDF8AF843C34AA033DF8E17D3D08878ABD68E095BDDA71D1BD4092BDBB98CECF3C2E70CEBD4855BD3C783CBD3D1C3E3C3DBE42953D287DB8BD045205BDF262ADBDD07904BC2AA9B43D9EB3FA3D700BDE3CD04987BDA00B853CE46C9A3D801F303D00E3DD3B00CDCB3B78207FBD7816D03C981EA43DB41855BD10BF753CB02CD3BC801E10BCA41070BD244FBD3D908269BD9230F23DBC96AF3D6037F1BCA6FED3BD642F223D0AEDB3BD566BDB3DC8E16ABD50DEE13DBC5EF33D18801FBD54C52EBDC44364BDE098C6BC60FEEDBCCA89A8BD8657F4BDC284FE3DB2DEE1BD000751BDE0687D3D902114BD8815C1BD1AF2ABBD00574FBC00FC4D3A5C4F46BDE0EA82BBD0446EBDB060613C84A046BD9086CD3C847C3BBD1855ACBDF83ECCBC988587BDE0D5A4BCD07C3B3CE867223D008091BAE07957BD3419A13D806DB2BA0446F5BD1EDED5BDC0B681BD10545FBC20EE8DBB20AB9B3D1C95E33D68E322BDC0155E3C0EBDCEBDB002843D5C6AACBD46BC9B3D8843CDBC008E29BC82B8CABD00C9A33C74D976BD544ED83DA0A73B3C38049ABC023ABE3DE2CF8CBDE03FCF3D1605813DC457F33DB23C9C3DA01AA3BD26D9CE3D60B1003D94405FBDDAFBC6BD9849513D78AABCBD744D3B3D647114BDD2CBB6BD8005CD3C80AC173C54582C3D1CE8EA3D38A7A0BD6640D93DA4DCE73DBEDC923D1C4458BD0233CC3DE04B033D8008F33DAABBA0BD549399BD40665CBDC0412FBDB04E30BC803EA9BDE0F8023C0A5F803DD29497BD6060CE3D80F2FB3B122FEFBD5A98C03DB0B6F93C0651C6BD8E77A13DB4AA553D48A1ABBC80915E3DC0A2D7BD145A683D8862233DAC3233BD068EBFBD1800A2BCF270883DA0531FBDA83BC2BD5C6768BD30AA573D0C27053D18F6FC3C8851843CE6ECEEBD20D4A4BCC0FF7EBC124E93BD40522ABCA094C4BC488E8CBCF03726BD30E7983D502A943DA218A0BD8215D53DA016F9BD2A96ADBD00A639BA0001E3BDEE8AF33D84DF0D3D68E501BD84AD273DC028F83D986A643DFAECF7BDEC2CB53DA88DFFBD148317BDDC83EBBD74251E3D0095A23CF8DAB63CD28580BD40253D3C94F6FBBD005BC4BBD45178BD14F01BBD10FE123C1802613D92CC9D3D00C75ABB1026EF3CD41E203D00404A3B50FF623D00B423BBD840D1BD88D9D73D103764BD70B1C8BC1889A83D9CDD3E3D8073DEBDFED4D13DB400EE3DE0E01A3CE045963D92B1FA3D1A2284BD941428BDF2CFB93D004D643B8014D13D005289BB6C18A7BD9AE1CB3D9C1F373D0CE7DC3D26CEAC3D5233953D0A62F23D40078D3D108C0EBDACB33B3DF03DE43DB03AA6BD82FFF33DBC4070BD5096E9BD78B4553D40D6573D5C744CBD10DE4A3CC4182E3D905C06BC94764BBD7822FDBC1A8EB13DB8FB8BBC962AC03D0829CEBC20EDA33B9098AA3C66AFE43D10944F3C08E7D5BCC00BA5BBEE8F813D70F38F3DC84FF5BD789399BD6034C63D328ABA3D4CCB103D8028C83A580CC63C78ABFD3C526BDB3DDA11903DB2ADA1BD589AE93C50C85B3DC427E8BDF63980BDEEEDCDBDACE0A13D9C3459BD9857ECBDF4D8EEBD52A7E83DACF995BD4018C3BD624DED3D20E4BE3B80DF123B9C1E4E3D68C6563D929AA8BDC0DF42BB9879BDBCBE70DABDE0F8EFBC40AAC7BD3C46B53D3CE19D3D82FAAABDAC4F8E3D90EF56BDE0F6593D9CD0C23D74EB4A3DF4DAD4BDCC82123D80A293BB00EBAD3A20E9B3BC2CB576BD4461BDBDFC3BAABD20F422BC8EBBADBDB65DF9BDFCFA6B3D30A77B3DE01D2A3C9AF8963D9807DCBC78AEA43C5861D63CE8DEC4BC0C40ADBD60A391BDF0E6833D8466113D6C3255BD80C9A9BC9898A73D60A987BCE0ACC7BCC4C31EBD689ABCBCC883D43C3090E43D7859823D4053543D800BAB3AC8907B3D1835013D96268A3DD0AD89BD100609BDE4220C3D0093D1BCB0FFA5BDA055EE3CA8DF463D404E8DBDEA85BEBD16BADA3D9EB79D3DB0B8813DA679D6BD48A39F3CC84316BD48AEAFBD7437473D2049B33DAC5352BD04F3DBBDF0848A3C780780BD2CC3193DDE04943DD62299BDB083933DA08EA33D3E3EC53D66BD97BD4272943D20DABB3DFA89F7BDB05B93BCF4F0ABBDFAC0A83DB03DBE3C20C7193DAA72E73DAEB0873DE0D5AE3D563FDCBD401A59BBB02B533CA0AD51BCF0845CBCC40303BD0E99A83DE8C27CBD6004C2BB86EDABBD3811BE3C005EA83DEC995EBDFCE9C13D1001DB3D4290B43DD4ED62BD8AA5FDBD807C7F3BB0ED3A3DE878AEBDC0D43D3D1E3DCEBDF822D2BCD0C407BC10342DBD80AC0DBB6C5514BD00DA2BBB6C1CCEBDEA14EFBD10B71FBDB090143D2449BDBD9EBAA3BD0827393D7AF8C1BDD0A9CD3C10C4743D481106BDF48B0CBDE8F7823D08F14B3DC8DD653DBC6A303DEEB3F1BDEA8CE03D5CC42DBD982891BD40AEE83DC29F883DE0AD80BB00E2C7BD9024EABDECCEA73D001A173A2E45A4BDB00E49BC389FDF3DC6C9ABBD5A4EA43DD836603D20596DBD04EB90BDF0ED2CBC78F4953C1496C63D20D7E13C3C8D7DBDB4D579BD201C1D3C0244CC3D5AADF3BDF08D113CE0479B3CA033CB3C482C433DD475ACBD503FEA3C1C171FBD2E2FBE3D9290A7BD3096193C6041BBBD186EA2BD2045FEBC62EA933D8EA4E13DE0EC663D4215CCBDA029D03D4A2B9ABD1A00CCBDD0EAE5BD40DDBE3D30DADA3D2079B63CF48C71BDA0C7E73C76A2BC3D9812F13D60758CBD0204F33DA03ED1BD14A0B6BDF03DEA3C009EF23CACC4713DEA7ED0BDC05B8EBC0CE4BABD5C317E3D765DF93DD62CC9BDD8DBE63D68B7EFBD9CB8363D2074FC3B3E00B0BDB8691A3D12EFC5BD686B6F3D9038533D4068A23B8002AD3C50FC553D84334FBD74C12CBDB8BB143DC0F7ABBDF83EB7BD640968BD2E41883D2EC3C1BD005F56BA60AC183C7C3204BD4023993B6CECD4BDB44AAC3DB624B3BD7819FF3D6C38A0BDD0FFF7BC44DCEA3D2A1FEDBDFC0A79BD1090A23DB287BABD627988BD70E8ED3DC62FC2BDD4F1553DAA0FE5BDC0E934BB80D0863DD6E0FABD487C2A3D18D1B63C7A97E53DAE1CF6BD10C2453D2CBB78BD7673B7BD78AF6FBDD0356FBCF48B5ABD101E0E3D2CFA2B3D888FAFBCCEA5B6BDB8ED73BD1CC25EBDB02C7EBDD0ED563CE436F4BD00769B3CFC617BBD4E79C8BDA41DAEBDC68E87BD60A8FEBD3CB7A53D94FB063DD6A3AC3DF83B4EBDD0D1B63CD417643DA0647BBC2C2FC4BDA0B0E1BDFE51823D80BF153B92BFFDBDAA49983DF0C0CBBC50A14F3D0087DA3DA45E9DBDF838D8BC80D08C3DAAB0F43D58A9A4BD324F8ABD5803E3BD48658A3DA291B4BD803D43BB503B223C803F32BCAC7FC53D8CE3CFBDAE23C83D14D592BDA4BE253DBC8BEC3D042EFEBD50035A3DB86BCE3D60FDB4BC7623FBBDBC0E953D9291FDBD82FE8B3DF48FC53D8C22F4BDF0B2DFBDF03A8D3D0663FF3D00D308BA746DF93D40999C3D98189CBDB418313D60A0643D70C114BC605BD53C9419B73D204DC83B2033C9BC48D1E8BDFAFD883DC05608BD409E7C3C0E12CEBDE0D0853DE09C0CBCDC5B18BD1C32FFBDF01B3FBC2A5FE23DCCE06E3DA029C7BD90F1B83C503F03BC92DACCBDB82EA7BC4C0A033DD6B7AA3DA2469ABD48AFEB3DC042443B8468D23D18144BBDD4102BBD9CEF4CBD423BCABDA87AAABCC2FEC3BD30BF0EBDA0CBAE3DC4B8923D4483FB3D7832AE3DD04FBABC08D007BD60FD43BCE04ECA3CD833373DA8EB94BDAA23E6BD867BEF3DC49CE9BD5AACD6BD007D92BA9045B93C74C32BBD546E213D1E91A13D449A013D1808C63C22379BBD246645BD1860ECBC8CD5CCBD7E19FD3DC06DA33D6AEFD9BD3CD0EA3DC0F8ADBCF00D2E3DD82FC73D7253FE3D38784E3D00CD693C3865BFBC60E9253DD401DBBDF021B53C88308D3DD65FA7BD70CFA53D2AF2AABD60A37C3C383128BD38FB9DBC60250CBDC83D863DF45122BDD0D3D83DC4A978BDB6FA933DD0EB623CD013F4BC308FA3BC009900BC906BC63C9034D93DC029A63B00675EBAE492BE3D3CEA7C3D18B18FBC000D3EBBBE63FDBD2A519E3D54EEC0BDF6D9FEBD70BE4B3C1C1F003DAECAA33D00CA9F3B6C4AE83D98CADFBC40F23C3D281A3A3DAC73E13DA6CBFDBD80A49F3D6042583D54B12FBD22E587BD407A4ABBEC97F03D8839AEBC620C95BDA8B1703D6434713D62D3B23DA4E01B3DA0AA5B3D10DC1BBCDCC7453DC0A918BBA05636BD24C72EBD9E44B93D88A9F33D147EB2BDD86AF8BC5CF80B3D207992BB90A9B9BD96DEFCBD887A753D9CAC2E3D9C7A383D68A3D6BD288147BD78EDF43DE2E9A63D1C19443DA68CC4BDA608ECBD8ECAAF3D5A989E3D90C5E93C8AD7E5BD2C75F73DE4908B3D2AB0FD3D30C484BCEE56A33D00BF243BA8DA773D84B9D0BD3C9A1A3D5223ED3D3854303DD83CB83CC49F0DBD1810BDBC74C1623D567FA43DA0D3CD3C745552BDE09E10BDF0B3373DF834C03DB819FB3D4842423DB040803DF88AE5BC3032B83CC08FF83B8280C93DCA40EDBD6662CABD80D517BDCC51733D0A52983DB08FAABD7043233DA80C203D48D9D33DAED794BDC0D7413D9EDBB8BD3003943CB0DC453DDC6496BD0432F1BDFE23C7BDBEAD963DC0F267BC5C82463D3A7C983DE00C99BD7EF5C33D24AA223D2650B6BD7865823C4EDA8BBD14C9783D70E832BC50AF2E3CA4F91EBDD8CFDCBC4614913D6801A4BC4819E43DEC1061BD40A4DBBD249305BDA0F3E23B58194C3D9A6CE83D34ED263D2AC6E23D14A22EBD1CFB103D2CFE7C3DFA01F53D840A53BD14B0C23DE8C9FE3D166ED23D8097C7BCB4C1B03DD8EDC13C6ECDFB3D2AAAA13D9EE6E53DEA26F73DA40C863D7C8154BD309C793CC060F8BD98518EBC2046BEBC6AD4E2BD8A38983D5018A03DEE49EF3D104F87BC0074503C24513B3DF0B567BC10AFFA3D449948BD00BE28BC20665CBD3491D4BDFAC9A9BD802D743C52CDA93D80E1883DEEF7AA3DC0126BBD1650A3BDD86E913D4A8FD33D3810FFBD4E0AFC3D40F36A3D985AAC3D149BFFBD5A99CABDA0906C3DBA62BC3D00D05BBDCE26F73D9AEEECBD402261BC80AAC0BC00908FBD46D8E5BD2649D53D8C0277BDC0839CBB789FCB3CBE708F3D3062F0BC5AC3D9BDE0DF34BD2015323C8C4BC4BD80651BBD58E869BD800192BB40FF113D60F03C3CB809F2BD30DF00BCE443C0BD7EE395BDC0D9CB3B60EDD63DF42F6D3D56B58ABDE064EA3B00FD813B20FC173D187D0DBD76BBF8BD00FCDC39E024BEBC3884083DD66ECC3D4AD3883DB8EF0DBD2416D7BD40E03ABBF211E03D7E41A3BDE0EF7F3CE20FB8BDD00568BDE0E2E3BBC876A63DC6889B3D8044893C00B1D23BF8F2803D7C6C3F3D28D81F3DAC3D0BBD08FCDE3C3AACB93D6457B2BD20D6183DC0A78ABB98D3AC3CFC708A3D5042BEBDC683B43DE05647BC8AF3E4BDC8C671BD4C380CBD901E3F3D0036B6BA1266B8BD247572BD00AB51BA80B95A3BC062413DD88109BD20D26CBC943FC5BD44B7163D40631E3BA896D83C24B07A3D280F583D606FE43C0E72EBBD52FE93BDB0FFE4BD68AF82BC2A6897BD00A4FCBA641B0CBDE8C6A83C30C7A63D8EEED53D68CDB4BDECA2B23DCE938BBDCE80B73D00AEDC3A104107BCF0AD4EBDC0D1E83B80B634BB8064D8BCFAD1883DE03DDF3B74D4DA3D82599ABDB03224BD9697E1BD0C45B53D102CAF3C70E03DBD88450DBD90AA05BC0CB344BD2C370EBDEA5BF6BDA09AAD3B007417BAB4AAD6BD16ADEB3D6E1DD13D8C524C3DFE1DFD3D36DAA0BD2E44EB3DDA2EC2BD1889933DE0CC693D6CEF0ABD60E2CABBA8C4453D66A6F9BD1025573D30A5E63C9442B5BDC8EB493DE833B5BC10E1D3BDFCFAFEBD8E22F7BD264FB03D309B32BD46E8CA3D6ACFBB3D68F8FEBC00F8963CEA8EBABD1C689E3DBC9D023DBE87DE3DC081F53D0479DC3D4868B6BC6C0C833D2EDC87BDF80B90BC58193A3D805464BDC01527BC38E7663D90EB293C16C0C4BDF0D8003DC6B9D33DBE44B33D88B28D3D3A18CE3D94B22F3DCCB724BDC4BCA2BD9C4751BD0A52C63D8EE08CBD60AD0E3D084393BDDEEFE53D6A2ECA3DF8EABD3D3E60A0BDB057B0BD866EBFBD80B7423DBA81F33D0004573D287DAB3D6ECD943D84B940BD7296ADBD701E5B3C50EAC43DD8FA0B3DDC0491BD6084E8BB1402ED3D6C8C6ABDD01DA93D80CFCFBAF621E23D008CD639F43B2A3D0E8184BD6CDFD93D00D86B3A1E11CB3DA0411ABC64CCC23DA2C4893D90210F3C4006E93B30CA63BC3C50C9BDC652A23D0044863C789CD0BD90116F3CC01ACE3C507FA6BD922FCF3D205EEB3BE0E42CBC68B5B5BCA6CEF73D20B1ED3C1097103CDEB982BD542BEC3D0036B4BD00AFF0BA32C6E4BDE024F83BF84BBD3C2801AC3C8022DFBAD036963DD05FADBD2C006CBD18B8F2BCEC6945BDF8EAC83DD0C47A3D10EEC83C30D66BBCC8EF773DBE10823DDE63CC3D5218BD3D32ADA73DAC2D58BDCC4AF1BD5059B8BD407B53BD4856C9BD8A288A3D28E4B93C4C99633D2864B73C4E53E6BD50CAD33D42EEBBBD5CE88BBDE672C63D9411F1BD6800A53D087E533D522BD73D34CF863D543F4D3D800F183DC834863DB8E68C3C3011C43C70D46FBCA0E7ADBC36E198BD30D112BDB0CCFCBDB0A1B83CB8738A3D3019F0BDF8C7FD3D2CF4CB3D5E00C1BD3C20C4BDD0DB7A3C5A69BFBD9C993CBD6E78873DDAA1DB3D34F7A13D7A01D8BD0047CE3B002303BA5A5281BD0051CB3B2C3EA93D5E08F0BD6839B83DE0D16A3DD2F4C6BDBCDA31BD9E7FE33D50B196BC286CBE3D6A01B1BD5A60A13D88366DBD0C01B8BD124CFD3DE0EFAB3B301D02BDA6FCA6BD6255E33D00D611BA10D867BD3408193D80F8093C9EAAACBDB2A9B93DCC19C03D06B1CFBD50B0B03D80F4B6BD8CF77B3DD079D1BD3864B23D7433C2BDB86DACBCC0A6A4BDFC519DBDB47C31BD58245DBD68B01D3D20CC46BC6E69F43DBEF2EC3DA09DB0BC3C30E93D4075C4BD42E1CABD18C6623DB8AB20BDDC9E853D6E50F8BD18C41B3D7835E7BCA8DD463DB070563CEEEFB3BDA4AF533D9815113D7E77F23D2E1EFFBD5674EFBDF6B091BDC8B365BD6C3980BD482BB4BD604173BC64A5DCBDD01BE53DFC7FC73DF06267BCA07D99BDE460363D40F5D2BDF41F64BDA4D2483D68DAD0BC8A77E0BDE0EC6E3D584C31BD9E0185BDD6469CBD260FB53DF0EED93C244B313D0A6C833DDC33AC3DB8C6D4BD7CF7103D08974D3D2272803DCA1E9CBD2043AFBD9C6326BD683F89BDC809993C96B0F63D104E753C142D473DC0A139BB84EA6CBDD8CD073D72748C3D24DC5C3D2208D6BD14BA773D8A199F3D80CE023DA0CBE23DBC9174BDBE67EFBD3CCC75BDC235993D1CE7473DE82BEB3D9C8515BD0005553D029FE83D98245BBD18E3A5BCA05345BDF02279BD10F4ED3DBEACD53D844BAABD50A65D3D90CFEBBDFA788D3DB8AF393D5889653D200EEF3DC06BDF3CE89ABFBDE29DFEBD0E80F23D8093A33DDAA1CD3DFEBC963D9427EE3DA0FC253DE44646BD1064053D987145BDF245AFBD9011883D08F7A83D5E15EABDCC34603DAC324FBDF8F3C3BC8E77F53D64C27BBD340998BD10F068BCD256CDBD00A13FBC28EE073D5005953D52B2D5BD782CF13D1C42FDBD087798BC98C5F03CEAA4C9BDD4D4C0BD806CC63A34D6D7BDD0AD19BDC41F253D840F2ABDC441633D7461CEBD044A78BDD0288E3C18B29B3C302A7D3C202B723D284B903C04CAEF3DD021913C8A37F13D4C21643D68AFF3BC940AB7BDEC068E3DA028DF3BDCB4CEBD7000603CA40C2DBD889ABABD2826B5BDC485D9BDE0E1E7BCC897953C783647BD6804363DF09D86BCC03F7B3C6834C4BDB8948F3C3689E5BD603F333C322D89BD3E228DBD4035723C50266E3C4A79C13DF055A83DF069DE3DCC98A8BD6278D83D26AEE03D648E1CBD9CCAEABD568884BDA25881BDD868D63C3010473C604DAF3C34E00ABD6036FF3C6A86BD3D30364CBDBA65983D3CBB613DF885F4BD106B9E3DC45826BD84D6363D587406BDD800B4BC9075463DFC07953D38B2A4BCCA5AC3BD62FA86BDE89797BD3C1EF3BDCECDB33D6C9417BD80289FBCF200BABDA03AFE3B006544BADCEDBB3D98C894BC401A5E3C843C453DD85E413D48D3143DB683E23D4A53873DF41F3A3D4CA708BD008A54BA80D2A53CA0C386BB5899623D161DEFBDC23BC5BD24A6043DCCC988BD9C2D6DBDBCB6773DB677EEBDA0386DBD0003AC3BC2E4BEBDA6FFA9BD90E91BBD82A5883D185C99BCCC33683DD87B493D3411923D207EA5BD0C9EFEBD14D24E3D4CA291BD8272AF3D68158CBC78AAC73C8E1AF7BDA619F7BD5C732FBD308CAFBDD898063D220BF93DF0B6E4BC8E5BFE3DF85A9C3D2018053C7048653C7AAE9CBDDC4B4EBDB0A372BD9CAB273D5ACC96BD308D1B3C30E5C83CB665C83D508755BD0050E43C6CB905BD68BD943C32EB83BD403B07BBAAC6A6BDF0F587BDC6B1DDBD041A18BDB0382F3DECA9BB3D407D573B8EE7F73DC029133C3866193D4418FBBD10A0FEBD40DD673B44D463BDE0AFF03DF4EF92BDA0030F3D64B400BDE60B8CBDB48911BD9A8CB73DC8FDD9BC7275AFBDA0CBBD3B3AE3F8BDCE4B88BD4E20BEBDBCFB1ABD5257C8BDE0FCAABB1A9F8ABDB4B1A8BDF44BFC3D14AD823DB4AEDDBD8035E4BC08B08D3DEACCF43DB800863C5257DBBDD0FEC9BD7819EC3C2A029FBDD294F13DD856EB3C70B1773C107F93BDF08F13BD685398BDD4FE5C3DB6E599BD8811A63C389B56BDC40F77BD2CE9CC3D9881D63D902F47BC0051213C34450BBD7031A33C48B8EDBD66AEE7BD5E94D9BD90D9D6BD44399EBD7819253DCECA9B3D8014F13DA09070BDB0367B3D9001FEBDE452783D7C8A6FBD4AF49BBD74663FBD20318DBD54667E3D843FD7BDFA80A3BD801BF23D02D6C93DF0DD223C5295DDBD58C8983CC0A77C3BD8789FBD188746BDC4A0443DAC3E463DFE3AD8BD00233ABB6453F8BD38D79B3CA8A9AA3DD4B8F73D6A1D803D2286E8BD50BAD5BCC07566BCCA5E9E3D042C21BDA47DD03D6484593DACB75F3D589804BD0C3ED9BD98A2D2BD8CCAFE3D2282B7BD401CDCBC300C2C3C7AFAA03DA833E5BD484AB93CB4F11D3D903654BD70DE81BD6037183C666AC63D5C2BB73DD07811BC6833CABCCE05B93D6032A43DE655DBBDE85FF33CF24BCE3DB8D7433D6249AA3DEC432ABDA8F8DB3C3CD00DBDE809CBBD6855A83D0848393DA0F5313C588892BD2037C0BC00EFF73D0282ADBD58ED90BCD091FDBDFEAC81BD90CD9F3CD6AD84BDFABEBA3D5A3E8B3DE87B123DD27DA63D400243BB409746BBE0FBB33BE04CECBBC8EF063D3CAA963D70D5943C2491FDBD9451ED3D4805213D844B573D38678F3D2AC0F0BD0042ACBD101EF93C9C7F27BD1097C03CD87CE7BD32AAC4BDC0BF333D22C3B13D16B9FDBD843FE1BD30F845BC68B81BBD1A67BCBDC624C2BDEEFBBABD9C5F1C3D5021113D76A4843DECEE9C3D20E83BBC48E407BDC8C66C3D94D3E83DF245EF3DEEDEBB3D005023BC2874CFBC1E4280BD201FFC3C06B2FCBD8EFFA9BDCC8E4A3D30DEF6BCD06755BD2237AC3D10F6D43D2255F13D404F23BD7EFBB93DEADE9D3DC270A6BDE824A3BC70187CBC6CDE2A3D44169A3D12BFFB3D6078703C7852FE3CB63CF4BDD090133C0065393D187806BD541E92BD38A7F53D3E78EA3DD0C172BC72AFDBBDF810B73C80D34D3D72B881BD6E48DABD7C57B43D0082293C5C45A03D3C68F5BD68354ABD6073613CFAF7833DBCF7DD3D589E2EBDFCD23EBDFCF5253D82D8893D14041E3D3064D8BD10268BBCA0A3303C74B68EBD6416D63D360EA0BD524A993D2EF6B73D7434BCBD10E52B3DF021963C603AA8BBE03DA2BCE8B1B43DD035443C2A9F99BD78E5CF3C3CEEF1BDFC4ED73D9899DC3C2248F4BD187D123DE23AC4BD8C777A3D80CEEEBC0017AA3BF68A82BDC0CEF53BA084B63D28060BBD6CB70A3DC0930CBCC0B2F23C3C6D2E3DB09A96BC6064B7BBCE2DCA3DC845A83DDCDA4DBDB0808DBC046AF63D0C89AD3DBAC2CA3DF0CD323D18CAB53C80C5CE3AD43431BDDA1BE0BD9493E0BD903033BDF0C63DBDF8C521BDD42B85BDD06C033D225B8ABDF26EF53DC0C3FCBCCC4A92BDF408E83D04A51E3DA091293CE4053CBDF2F19BBD8C8B383D768BCABD4216B03D300C23BDAC21473DB016B53C086BAFBD1EDB93BD20D35ABD9045AEBDC2BAFA3DA2CD84BDD03396BDC06C6E3BC89EC6BCE0C4B0BC700AD23D8092D9BAB4E5B03D9070DA3D48EDC6BD62ED8A3D002CCBB9F8ED943DBE44D8BDC08337BD800AF9BCCC1FFA3D8243D03D04100E3D58C0EF3DB0EA25BD18593B3D2458453D9C4AD6BD4057BABD8866B4BCA414B4BDDC4B403D00EEC5B9809E34BD569599BD4CD2FF3D509420BD6C9AA0BD668D9C3D60CBA03D841AF73D88772B3D20B6EEBC2C7F7FBD2CB76BBD7449993DB4DC2ABD4053C6BDB04220BCC289853DA45E0BBD20BC50BC246FD3BD5C5C4C3DBCF2413D30E73C3C6431CD3D14D1ABBDD219C8BDC631B6BDD29DDEBD28FAF0BC2214F9BDBADEF9BD9872C33CE8D3993DAE29E83DC892E43C125FAFBDE08B5D3C82E9ED3D90A8CFBDCC4D113D845D1B3DF8BDE83CF2F0FD3D9058CF3D6877F0BCE41B543DA8E5E93CAA6ABCBD0658C93D645FDABD2003F7BD384ECB3D24F06E3D64FC1DBDB43A90BD243E9EBDE09AA03DA0E7F2BDB080C13CAA55D23D00F41C39F4FB953D7CCFF83D7444273D64A7003DD41F163D0CD3133D6CA31E3D809C673D44DA713D701E58BDDCD0993D5A9FE5BD864EE1BD2078F3BB907A553D924087BD78505BBD0866693D7C1A63BD046F07BDEC50AA3DE00416BDA01CFDBB2CA2383D609E1A3CFEA0873D604E92BD0A9FA03D38409D3DECB5E8BDA046D53B761AC3BD72A6F63D7202F0BD087CF93D30D258BDBA8ECE3D40EFC0BD4446BE3DB06F5CBCE8FD6FBDE667A23D4239B3BDA000E33B90E7D2BDCE6DC13DA4AA58BD7E95A7BD0C00193D906E11BD88B7BABD827DCE3D8E2BB3BD84F146BD2C8D883D58E1343DAE03C83D68641D3D921F963D001843BD2039CA3DB0765D3D7020A23DA0A74BBD709A8CBD824AE9BD80CF63BC1066E9BD50809C3D808C653C303414BC6054143DF435363DD0E7453CE462263D5CECC03DE0EF253D88E3B2BD18E8D8BC2467BEBDA0372C3D30EF0F3CB0DCE33D385F62BDB49D793D3004AE3DA480DFBD7831DFBCFA85D63D92E5A6BDAE1491BD22E4B6BD5C8EAF3D6096C8BBE46CA73D987BDBBDC8BE2F3D18FD1B3D3842A1BD3066223C12F0923DA48A0C3D58BD62BD3C99033DD6CA8DBD9422ED3D2089553D102A33BCAC8CCEBD18219FBD3651D9BDEC62DE3D20BA23BDCA8C9F3D48071A3D308ADE3CA0530ABD6EFDE43D9030953D5012813C8012C53A6015D2BC643BEE3D48C471BDE8BCEABC78D6B33CF2ECE0BD90ECCD3C243E69BD0C2BFC3D289F24BD2867CB3C980356BD6C4FD03D40F0633CEE7FB1BD7E40A13DB26F85BDB4F6A83DBA1289BD0009F43CD098AFBC8ED5C13D1C0E643DBC3FB93D2401FA3D348003BD94A1003D4298D3BD40457E3D6AC5FCBDE200AC3DB8AEEA3D9C49713D6013E83B9429D13D88B3783D0C53443DD0DD04BCC0CCB43B00BE9DBCF88098BC12B9B23D387F4EBD0AAB97BDB616CD3D04AF6CBDD8897FBD107905BC1C8B233D00546239E85B1A3DF0AE0ABD0048663BECD710BDAC3BBE3D4E75D1BD3C6C17BD7CF3993D6CA898BDE06DCCBC5890C0BC8028513D38E7AE3CA022BCBDA463AE3D38D062BD30AF28BC1AB1DC3D887C6FBDA4271ABD204FDBBC7295813D24667ABD84CA153DE087FCBCC0A01A3CE03E883DC00C36BBC8AD84BC30AE463D08C6B0BCF037603D6869E0BCA09B9B3D8C245FBD6A5C91BDB03A2DBD905CD63CD8D68E3CC03D883B8A31DBBDD8968A3DA038DBBB6AF5F8BD78719FBC26D1D8BD5EE2EFBD9610BDBD241583BD205CA4BCC20BFFBD94E57EBD046A153D88D4BA3D00402EB8A0304F3C70D1CCBC0001283AE051C6BC1812DDBC2CF8B7BDA083693CF05B40BC64833F3D9487F13D3C34A5BD78C86FBDDC1AD83D0A54923D4CE331BD746E973DE007AEBDFE8B913D8081ABBCF8ED3EBDC0AFC23B968BC6BD064EBEBD80536EBBFE53AC3D703B90BD088D913CB071EDBD405504BD1471033D189BBEBD282447BD32B0BFBDE04A95BD1000083CECA1EA3D80AEC9BD804F3F3DFAF5F23D949C2E3D704D1ABD8035FBBD5E0D9CBDA4DFA0BD181B04BDC8ECBABDC0902B3DDA9DE03DB4E2D23DC8CC0D3D7C7C8BBD360A81BD10361FBDDCD239BDD06DB9BCC2B9E83D5E75B5BDB84DD0BD90CCBFBC60797FBD8CBC7FBDB0094C3DD8B66CBDF480FEBD7CD726BD789ECFBD1EA2DCBDB6FA9B3D207F913BF6318B3D4094BDBBA8E3F23CE044DCBBB081663D3C025FBD4011483C22FEC33D6AF1DA3DF0409D3D7EF19BBDC6089BBDDCF880BD78242D3D4AF3AD3DF00E0B3C20D5AE3CC0D517BDA0A0A7BC00D3A23A7C27C13D407B79BBD03026BCE2AAAB3DAED89D3DF09B9FBDE4DD3DBD649C3D3DACA468BD4C8F1CBD425AE93D10FD743DEE8BD93D9863ADBC3EE6E43D1A24B63DA4E59B3DB0BCB23D9A51C03DBEC189BDC060DE3DBC57CE3D90CA1FBC984F443DC068CA3B9294ECBDC4AE743D28C58B3DF4E84B3D4012C83C9C2CFABDA01FAB3D7EF3FABDFA39A23D2818E2BDCE5A883DB063373CB090E5BD70230E3DB83E923D9CF15C3DA0278C3C4E0F8CBDE4676BBDBE0ADE3D00AEABBBDC707B3D86A1C2BD6AECC5BDB458E8BD2803343DE018FA3B6822DEBC803573BD68F6353DEE4AFEBD083AD03CD23A863D427AD83DC41D203DC6B49D3DE056F63C04E4B13D78D3A13D50BF6A3C86A58BBDC0F132BB0C909DBDD0A705BDC85335BD9A22BDBD9A3A893DC093EC3DF8F8703DDC41CFBD8E53B13DCCF6F7BD52AB883D9C69D23DACD7DE3D267CC73DD6C0B4BD14374CBDD67EE43D4064983D3ADCDDBDFC37C9BDAA49C73DA04C9BBCC8B5563D0070ECBCB868ED3D100CE5BCBA7991BDB255A53D0051D0BD04771DBD12CFCBBD38C17DBD085375BDB8A3A4BDAC5EFF3DD4F2CCBDE63689BDF407743DE0CFACBCC8B9D23C28AC9E3D6618803DB0479B3D9AAAAC3D2A84A93D145CDEBD8260A5BD60B854BDC0CD04BC1254CDBDE095283D642E5A3DD02CD8BCA409CBBD182B7E3D400E53BD1C291D3D26F8B43DF42B663D00C479BA9AD79D3D502E35BCC0C1613DD611C2BD186DE4BC34EDE83DD4696F3DB0A8A83CC408243D148881BDEC80CCBD74E863BDD055D6BD3CECB4BDE887533DF0B8173D48D252BDE47EB8BDB86736BD50CF43BC80A8B5BA7676FA3D08BA7D3D202EC0BB50668A3CC055063C0CE3803D40C2693D9048D7BDAEE1D0BDE06551BC94844B3D307B26BD9824A73D52B0EBBD28673D3DC02C1CBD08C9B73D8E0F94BD90BA20BCA04ED93D3CE0E3BD6A5BA5BD3E07AE3DD0B2383D82E2CCBD6CF806BD90A39E3C366EEFBD00CA6DBC00763CBD28CDB83DBC5BFE3D441A2F3D80E2F4BA40DA513BF800B8BD10A568BDB0FE0EBC409C3C3D30CD203CCA44DFBDC02E7E3D7844B9BD74CA1FBD3C488B3D5A11AF3DD84D92BD74A4CD3DF0CD22BD9A0BD1BD847CFE3D704E873C54956BBD102E64BD4C4EC13D58B0983DB291853D34A64F3D4076A43D28DB553D28B5DEBDA0FBB1BD0A3A953D40F0143BB8B5BBBC08BDAEBC60221FBD7CA9503D5CB74C3D80F8613C60378B3CC0153C3B0CFBC6BDEAEFDFBDF02AD9BC3011C83CB2E8EC3D381CE23C54A02E3DE21DDEBD04F45B3D8E41D53D9CF04FBD74FA26BDC00C7F3CFEDF8E3D9E8BC43D1849E03DD088153C9C0C82BDE427D7BDF0C7863C2458473DF4E1433D3C9309BD0C5CE83DCAA2CABD202680BBC04A39BD7EE5F23DC0D032BB3EC3C0BDE4CF7B3D34812F3DC82FC23D9EABD33D5CC8B5BD803B21BD80CA983BE458C7BDD0FCF1BCC04997BB0804033D80AD1DBC44F43ABDF011B1BCA2F597BDBEDB9E3D4AF7FFBDC095393B9E84F8BDCE1F8F3D1C2AA73D0A45FE3DF82CD63D18A1CCBD5256D13D9C329B3D1A19B93D0641D63DDE6B993D6855A6BCF643B93D6635ACBD8220BCBD2ED3F73DA0D2743DFC008EBD7C17193D9EDCD0BD90E1CDBC508D5BBD5CA1633D94A4873D40E578BC08B868BDAAF0D83DB07455BD0A3293BDB0F0EABDB472223DB0EAB13D08BC303D362A9C3D687FD1BDB035A9BCE45BD93D80D4DB3BC09197BC90EF043DD071CE3D98E56A3DA0D8A83D6ECEEBBD248DDD3D30C3343C8629B83D18A5A93D3ECAF6BD7EFBA7BDBC1294BDB4AAA73DF07720BD0890CD3D6493D13D0660FA3DB2FBC1BD8E80DDBDC4F47CBD8EB2A1BD3680D53D1277B33D2C29E8BDB0DD1FBD9A6484BDC0E1023D2C292CBD7812463DCC44D33D402DE73DB047EEBD00D501BBE0FF8C3BD40D413D4891BEBC22C09D3D2455DA3DAAAF943D80C6B23C94F00A3DC0DB5DBD2094AFBBBCAC33BDD095553C00F45E3D383B09BD001C24BD9024513CA41D3A3DD02111BC4C11CA3DA8D1E03C301E733D1E0DD9BDF0E3B4BD28C8993D60AAEF3B3A95B53D2467153D6A03F33D74ABC83D88C78C3D88CECABDB0A80BBD2417A0BDAC1225BDF04705BD9C93A6BD36DFD7BDEA69C23DC06B053C502A15BC5E6D933D8E46BDBD0ED892BDB6D6EABDCA5BDF3D54EDD2BDE8FA22BDF6B2C5BD7435173DA8871CBD90D1D93CC0581F3BE4DD4A3DDA4FCABD0E9A8DBD5099CC3C761CCCBD86B9BC3D6C51C2BDB88EB13D1249B33D8E5BC23DF062D1BDB4AB06BD1028F9BD984BDFBC60E9CCBD541FC23D5CBBBD3D9C077DBD4446983D98AAA7BC98C0213DB47186BDAE9FE83DC8E9D43D30D0763C540A4B3DBE819C3D783CCB3C1C7702BD64F2383D80ACBC3D7630DEBDDAFAE13DEC1930BD8836DF3C407C39BD302D233D78774DBDC4840DBD6407783D988EE4BC30BC49BCA626BCBDC083963D78D789BC7A5AF3BD0042CD3D6CEC0EBDEC6EBA3D00516E3AAA77AFBD6C40153D2AF39CBD40951F3B0049C33BF22F9FBD24E3473D00776EBCDCF493BD1C64A5BDE0CDD2BC68F8A33DCC53E3BD904822BC92328FBD505F73BD6078323D289B5FBD881DD13CCC03F8BD2856803D1EA78D3D0AD2BA3D8A91C0BD808A1BBCF8BDA0BD1895853D04839BBD3AC2CF3D3C2EC9BD10AC333CD836C7BC4023773D76CDE2BD44B076BD404E45BC00D032BC00ABD9BAC422A6BD58086DBDD651B7BD481A8ABC3217B5BD0088FC397617C8BDE64B9B3D600BBCBB36E6FC3DC86EEABD7031983C082BA33D38F2D5BD2073B6BCC46F8ABDB035AB3DD464033DC83030BD10F4BEBCC87D6FBD284BD6BD10F9BEBDD01A8FBC187EB7BC0214A9BD00C1C43BC0D07FBB9A1CD63D50C4DF3C28E919BD6A45BD3D204893BD12F38D3D8410E53DD0C1F0BC70589DBDFECE8EBD4CED74BDB8210F3DEA3BABBDA028CFBC8CAC123DF84A92BC20718DBDA01BF53D86CC9E3DE443133DF8C8963C2009B03D40A52C3B10AAD7BD4A1AC3BD60A6A1BDEC443CBD985FE03C8CC8BA3D36C1813D204E933B300D113CCC3A7FBD942E813DFEEBB13DD4E060BD5C5CD1BD102FF33DF053D1BD60508FBB7E21F63DAA248ABDA06F083CC01017BDE4CA10BDD479083D987AE53C50B04B3D38F0823DCCC7533DF25EBD3DE06FAE3BC84FBA3D8A248BBD40AF69BDE43DDABDFEC3A63D6CC92C3D58E7C83C582693BD2ECEF3BDC0CE62BD34A6403DA0AE3CBD505013BCE059A5BD8446FF3DB0EF18BDE465EE3D9073B03D00CA5D3B1C8A103D6E89B63D6C887C3D8408883DAE1382BDB02184BC3C8EBABD50965ABC58BFD83C4C0A083D2609AA3DEE75E03D363EC6BDB860F1BCF0DF133D34EC0ABD405CE0BD14388BBD20338ABBF43F44BDA091A33D80889D3D320AFBBDD83AD6BC280AFDBDA87350BD8293BDBDFA9986BD02A9EA3DACA22BBD0065CBBD4AE7B43D16BEDB3DD4B3FCBD00762ABD80DA143B4E14AABD783D5E3D9A108C3D803A28BCC64CB43D505D33BC088E51BD8CA8493D0050233B58986DBDA87BFBBC7484C6BD104DC33CF01B79BC7013AD3DC0CEBDBBC8BCCABD087C303DB0F316BCF85F943DCA87D8BD6026F83C040B14BD8011BABC4E9C923DA0EEC2BD9087B9BD602EB73C0009463B709A803C18107D3D3885383DE86E54BDFA41A0BDD234C43D906934BC50DC563DE05DC5BB48F2C8BC1440B4BD803BC8BDC03D9F3CB4C6343D70F56D3C9A3BE1BD8845AD3C00CFABBBE480F23D206EBBBC3C0DEE3D5C014A3DB8C4F03C0E3FACBDC4F372BDA055D1BB008478BB00D88F3BAC3E92BD54B855BD502B423DF8F259BDF0AB6BBC10B3C8BC0496E1BD3CA2833D76C7F8BD124FA8BD18743FBD0E5DF93D24331EBD30BCADBCB00CBFBD0472EBBD8CC30BBDD0D6213DFECA96BD808ADC3C52A28A3D042885BD8A3BEE3D9EBBADBDD006903D8077A5BA90EA9BBC504877BC106EBDBD6007F1BCC40CDB3DB066973D7EC8C73D3E0EB53DD4A7A43D0A198DBDBCE7623D7060343D74CD6F3D009C2EBD3C30B4BD388D043DDE57BDBD0068AE3B88B186BD24DDD13DACFEA3BD489CADBCA067633C06B0E6BD7641E13D8089213C08090ABD800E9DBB28747F3DC48D72BD7263B23D1233F5BDA050F53D7C4AC63DA682DBBDCED5DD3DB8EBB33CC0A12D3B488BABBD5E1CD1BD0CE8C63DB8BEBDBDF04520BDACB07A3D4008F6BD5C0E673DC84E2BBDAACAC1BD525C86BD800C47BD1E40993D169C863DECB39F3D54F517BD680B8DBC985497BDB85DA33CE467C8BD10F81DBCF60DB7BD54C9453DF2E9C0BD8276A5BD6ECBF1BD5079A6BDAE7E94BD68ABBDBC607053BDB4C5393D68BE543DDC326B3DFE99E7BD944172BD5A2C8A3D28D1B83C98AF203DF8331EBD4C3B8B3DE037BB3B2C824A3D86C5DA3D246173BD32EED83D0AF3E43D648B83BD82AAC9BD8847A53C6050C2BD6CB460BDB2069D3D303EC4BDEAF981BD40D5133C1045D33DE0D0173D94D2C1BD122DF7BDEC83733DA8B38F3CA4992D3DD8B7EBBDCCC6B93D30B5053C3052A33D1E45A8BD108F16BC48809FBC208FC7BC284C8A3CC4236BBD823986BD3E79C43D5CD700BD5837003D6EB69FBD685E86BCCCE25E3D2842B7BD68E781BD6886D53D600BD23C4CC3B73DE48CAB3D0A71F4BD8E86CFBD2010E23D0C3051BDD47339BD2A37F53D38C7AFBD4A61D83D6808443D12D5F5BD4C3DB33D3C51F9BD9CCBD2BDA0818A3B4075B1BD2411583DA4ECA6BDEACCE73D182B503D40AA7EBDB07DB53DA4480C3D24ECE2BD9CC4FEBD5C55A9BD00375B3B7EF399BD6C5C683D98D291BDA67AB53DA8216D3DA0D4E63B30C175BD8CC2873D84F72CBD"> : tensor<64x64xf32>) : !torch.vtensor<[64,64],f32>
    %4 = torch.vtensor.literal(dense<[0.0630624741, 0.00718207657, -0.109720692, -0.0606116205, 0.090219587, 0.0826347917, -0.0298491269, 0.029541105, -0.0230860561, 0.0130473524, -0.100140795, 0.0793707818, 0.0162926465, -0.0542137325, -0.0904721767, -4.925160e-02, 0.0184881091, 0.10563232, -0.122771055, -0.109246224, -0.0741129518, -0.0871984362, -0.0256823897, -0.0434235483, 0.0536439419, -0.0728452802, -0.018003121, -0.0649022758, -0.0121916831, 0.0257692188, 0.0402926952, 0.124773219, -0.0764420778, 0.0242485106, -0.0363129079, -0.0742486864, 0.0113734603, -0.0470118076, 0.0876319557, 0.0352538824, -0.0214423686, 1.950270e-02, -8.709310e-02, 0.016630426, 0.00846639275, 0.0533660203, -0.0472845882, -0.115425229, 2.244550e-02, -0.0935357958, 0.0352532715, 0.0181563348, -0.108164951, 0.0327724367, 0.105950117, 0.0562899411, 0.077729091, -0.0689472109, -0.108909756, 0.0593318939, 0.0418382585, -4.252970e-03, -0.0969531685, -0.119404525]> : tensor<64xf32>) : !torch.vtensor<[64],f32>
    %5 = torch.vtensor.literal(dense<"0xE880653D8437C43D70C13FBCE2DDCD3DAC7ABE3D00C1E73A5C69F1BD4A21C63D0C2DBFBD0057743A404A69BC6464BC3D4053E53C04FCDE3D58CB1B3D90C4093CE4898CBD1282AD3DEE45C63D20FD483DBE3DA23DA060B8BC8015FB3DD0F8973DDA4892BD4C56933DE218893DB4D4A3BDA24BDA3DA63DF7BD40E17ABBEEBB88BD18AAD83DC46675BD203110BD5CD6DE3DC86F283D3E76F6BD807E78BB304755BC1257ADBD8853823C50BCF83DB449B83DDCF280BDF037963CDC99393DDA54D2BD9EB2D0BDC06DB63D28D4AFBD4CF2DA3D383E9CBDA4F0963DD876743DEC4222BD64DBCA3DD46FFC3D8C889F3D28DE34BD5461933DC28D84BD40B2F8BD5682E8BDF455103DE0A3ECBD78BD08BDD4D0C43D1820AABD9813CEBD0CCC70BDE0C3163DA4E8173D62CFD3BDAC0D003D9294983D4CE4CA3DBC29F3BD3CC4BA3DA292A6BDF8FA3F3DDA42FF3DC0A72C3D848BED3DA63F813D08D3C1BDFAFF8EBD9C840C3DE06BCDBDD00D0FBC7EFBF9BD4C20F4BDB86B1DBDB697A43D609A2EBDD0DC403D762CCB3D48799FBD78F8F73D72ABDA3D5CD4E7BD34F6A4BDC01D193C70EBA6BD00BE733D36C2B43D10BB5DBDE809C93DB6B480BDFC99E2BD2CB8033D0622F7BD3A5B9D3D407A0D3D00392ABCDC1CDDBD22CA8F3D80FB703DCC94F53D7AF5F0BD00611E3BE63ECC3DE490353D3C0DD23D98431D3DF0C6813DCCA90F3D78DA943DE0406ABD0038873D9E95DF3DA82C863D503B313D68F0CFBD709963BD003BB2BBFA84C93DD66EBE3DA873953C2803BD3DB8EACD3DFC14703D6E019CBD4CD0053D828F8C3D0418F93DBE99FC3D180F62BD98FA393DF01B7B3D5072B33C045F2EBD44D93E3DEA09913DD6B4CEBD4E55D3BD166BA9BD0099C3BAF282A63D90E65BBD00E5873C70D84E3D842B8FBD10792C3D18A13A3D0640B5BD1EE4F53DFA4CB0BD440C083DA88B7E3D380B6C3D000DD4BD94AB68BD1C92263D7A54C03DD84AC0BD3A41C83D107A55BC8614BEBD68E8E03C6618E43D2EB3FABD98DDF33C8C1FDB3D00D8BA3C30B79DBCAA06C83DDEDCF6BDB0BB14BC40575BBBF260EABD94ED2DBD880EC33CE44A9A3D5C20153D1CB8F7BDE8B69A3D60D06D3DACA0CC3D14FE6DBDD00C04BDFA5AFFBD0052703DD8396D3D34A28DBD8466703D7A3BC43DC860973D8C69BABD14AEBA3D881E7ABD988898BCB06F2CBC6A22D23D80E19A3D50D2F3BCC8D2ABBCD6C0FC3D14C27ABD5C28C9BDB6C5B1BD0001CC3CBEE0E9BDE089DE3D2EB8DC3DE0D3D33C98AAA2BC300289BCD8B5D73D2888963D780CF83D865F9ABD1C2F1D3DFA6C8ABD5C2BD4BD203EE7BC90D9883D8C66023DC02C48BB8A39C2BD0AE1CF3D4027A73DA402C73DFC88603D245AE0BDA0C82C3C8802BF3CE0950A3CE03C933DE0CFBEBCA4DBE0BD5064483DD8701DBD04B08FBDD400103D5AC88BBDA015AFBC32C8B13D803D9DBC20CB663D1E67B53D38B385BCC06F21BBC885603D6EE6E7BD00BAD1B958CAF93C20E23FBC0040CD3BEC8F463D58E3773D5CC0D33D00A8F638AAA08E3D54C077BDDC62183D14B47ABD0099733D008477BDF083B83D28A5CE3CF8D44ABD00A31A3DB81A9FBCD89E9ABCE453DBBD280DA9BD8E37973DB8B6B93D547084BDDCDB8B3DA8F58B3C18688BBC8C4EAB3DF0A3A2BC4AA0F33DA646B3BD441FFEBDCCB4CC3DCC6202BD20AD97BC8C3CA13DC0CB48BB1CD538BD082AAB3D6C23D23D94856DBDB477B63D70FDF93DD858B2BD82A29EBD60C763BCB09BF7BD04FDD73D844E27BD98729C3C00C3AE3C54C952BDD00B603D907797BD48DA993DA00BCC3BA620EF3D3017823DE012D93BA082083D205EFC3D528AF63D1257E63D08B1B9BD7A5EC4BDD040AFBD9023EDBCF8C6DA3C4CA1A0BD1C0A61BD1660B2BDCA2DFABD807EF0BB1CAD0B3D98CC8B3DB8F65CBD88BE56BD40E13ABD1405EB3DD2DF963D4093413BDE8BF53DFA8890BD00F7BABA043025BDEC88F63D7CD0C0BD8C756B3D2E06EBBDC0275EBCBC4FA3BDB0CB013C4A50A8BD2C1AC03DCC071C3D9883E4BCC0A2F2BBBACAA33DD48F9EBD8E18ED3DF8135A3D40B8FA3C3E0380BD6013F03D787680BCA0081C3D28C599BD480C74BD8052D2BA584C9C3D90FF32BC76A4FE3D38378A3C98F9DF3C4C7EBB3D00AB133A00E52DBB0082943940137A3B3AB4893D1CE85F3D30D0C83D40C98ABD5635C73DB2A1A5BD7871B23C6420F7BDBA57AB3D20C85BBDA8EB06BD34D69F3D645D4D3D18DAADBD6A02BB3D0272FE3D66F9843D706E25BC24BF5CBDC6C5883DA687A23D00A95CBD90D0663D6CF78C3D708BD1BD58A097BD0052053C2032A93B08D07BBDD86D96BC7E5BD63DB616CE3DE692FCBD18F1333DC09E3EBD007052B9102396BD9AD3CCBD9022683DC8026A3D92D1A23DCC7B603D28B6FBBD3609C53D8626CB3DB6BBF03D20F06A3CC856393D8859FCBDE0C9B6BDA0CBBDBB647A583D00989139B424F53D82FBEEBD1ECAEABDDCDD343D00F502BD582BFFBCF84E8B3CD8F0EE3CCE9B973D584AAC3C44A74DBD9CA2083DB09452BD4825FA3C70FFAB3C70FC2E3C4EF5E13D5A1AF13D40558EBD7804DEBCE081E4BB54BF6A3DE093923BC45157BD204B4FBD5062C13C5E6CF3BDC010103D00FC043C70B170BC2C0F14BDB8B4B5BC60098CBDF21ADA3DC02F023B2A56D73D8E2F8E3D7494A2BD00F2943AE23992BDBE7FE1BD00F3C23D8AF3823DF8E6013DB856FE3CE05F87BD48F9F2BDBEEA81BD3830F33C10F1723D840364BD80BEF9BA287D1ABDC018C3BB94BEDC3D904E81BCCAB1FC3D30E170BCB0B74B3DFC2F083D6A03EDBDB8B4BE3D788283BDA09359BDCEA0A5BD7C88D73DE8DCAFBC705C1A3D80ECDBBA0205B63DBC0563BD20E592BB9418A6BD9241AC3D748EF73D2053073DBC24353D90DC3C3DA467733D3223FFBDC0244EBBA679DEBDA8FFFF3C5026C33C7C445EBD006D11BA8C84A83D40808E3DE0C4E43C34397F3D008BA33A005DB5BD0E56BFBD46C6D2BDFC23DE3D30FF4BBD20B05A3C26A884BD8C1D923DB6208FBD9A35DC3D0098E63830557E3C808DFABD42DDC9BD1C10F33D7033E3BC6028A73C5C315EBDFA6AA8BD5C43E03D50D2E1BD402A4DBBDA7FD53D1A4EB3BD60B5223CCE06EA3DE05BA73DD6B9893D0CF17C3D52F7C5BD98A744BDF8D46BBDCAF2983D0056F1BCFC6DE3BD8813313D080CB4BCC0CEF8BCB0A9E63C1E40973D500CBE3D0A34E03DFCCAFB3D8C78F33D14A20EBD90FF35BCA847B73C006C4239E88B33BD00EEC83BA0E52FBCAA92BCBDB4306A3D3EE9E83D00313A3A2A4A8E3D44DAAA3D741521BDB8FDED3DFCDC083D00ECC5BB5417EC3DA474B33D1478873D80CC63BD423096BDC01BB73C40BE64BC06919D3D70DA923C848484BDF237E03D5C7C623D40A447BB9CDBC1BD86EA9ABD1285D5BD08A1213DE084F53B60156CBCC27AB3BD38C852BDE0FF523D80B4D93CFC719DBD400895BBE6B58CBD522493BDDC08563DD0D285BDE2D1E6BD4E17993D1031E53D14F86B3D40D5ACBD141F593D3CD7393DE6C6EDBDC0ABC5BD208956BC7E319FBDBCB4F8BDF2D99BBDF4EF19BDA06F06BC2850BCBCC0DA7BBDE0C673BD280D483D4C9F93BD00B47E3BD4454B3D480CA03DE4EE6C3D0048F3BBE01997BC56488ABD724FC83D88B5F7BD18E2D53D44E54EBDFC8F2F3DA8A9263D248621BD3CCEDEBD3036BD3D1CF1B33DDC4D313DE4B03A3D405FB0BC0C4FD53DFCE188BD80EAD63B1078EE3D3E53A4BDEA4A9E3DBEC0833D987468BD8E6590BD54CE5F3DF8B66A3DC0C3663BE4BBCFBDC053C53C664EA6BDACCA2EBD7837DDBC60FF59BCB4C8D3BD00767C3DF221FFBDEA879E3D00006136781E83BDB857BB3D9CA772BDE4B16DBD4096B5BB5C39D33DC0CC5C3D5899EB3D4057853C6825933D2CA92EBDD8193C3D90A298BDBEDAEBBD9C7BDFBDCC4F4E3D48FF913D5E44BFBDC0F2A23B803E653CD68AA8BDA4ACE33DA8098ABD4028343C600EA8BC10D6A5BCA4B027BD0C52D1BD8A71E6BD4224F13D1AF2E33D30F8593C6095B03D208ACEBC805B9FBC801FD6BA3C21613DC264C63D92A1A33DB8069DBC647B0FBD7CEDAABD88F7203D08AEAEBD743DD6BD045EA6BDD482163DA22FA03D206ED63C2A6F8BBD1EF4D8BD7093883D00E5D6BA642572BDD04ADDBD005DA5BD8E8FC3BD08ECF4BDC07C333CFA89A83DFE3E893D987FDABC600EF63CA03D1FBC200752BC943EE1BDA8FDAF3D46C0EF3D90104BBCC272F53DAA0CA1BD681EE73D96DCDE3D308C5C3C80D955BB24839DBDBCB4A63D3CC998BD685D9FBD24200BBD0A88F5BD10EE9A3C906A00BCF0075FBCB657E9BDA0C07CBD78C52FBDC0A618BCA089FA3B08FC833C40FA1A3BC031B6BB54A7F83D0C6F50BDC83294BD3023523DB0C5B6BCE8A78D3D0037453BC85BAF3C0070653C960194BDE07823BDB4B44A3DD89237BDF0126E3C00CF64BCFC6FA5BDA0E5F0BBF0DD15BCF8EEABBD0C53223DE0A0AEBDDC46ADBD24D4143DE89ECB3C789EE23C2CB6B1BD98813C3DC05A71BDFE0891BDD04E003DB8AFD03D000CDC3D5007C83C56219D3DC01AE6BD12F8E5BDC45589BD78F2EB3DE855EC3D90F7E33D48B1C33C78C4BDBDD061773CF006873D0820F4BD1823E33DB25C9F3D345CADBD8CCB25BDFE419ABD206D4E3C0C268EBD48CD47BDC86CE23D50CB073C92B599BDC8D7EE3C30787DBCFA8D893D3653E83DC458B63D5C5A48BD74E9473D02B4C33DB23F913D7CD6E2BD008911BCDA99C8BD0CC5243D360AB6BD1A33ABBDA473EE3D6E9FFDBDACE9F1BD8048D0BA9CFCBB3D60AB9E3B6095DA3C98E1873C5876A83CD87E823CB210AF3D98AE513D80F5CDBCCEF2B1BD005DBC3B8EC0CF3DB873763DE0C14ABCAA9694BDF0D035BCF6BEC0BDD82A59BD3868A7BD7A49C1BDC0FA3EBDA06F0C3DE012A2BCC03E82BB04E9A13D2873A7BC9840E83D0C1478BDF0F312BDC0C0863B3868613DD4358BBD3099743D080B27BD682AB8BC1E8FE23DF05E013CC866C7BD2C1DB43D880D113DE67D8CBD34158F3D64C3713D1812CCBCD0D2973CFC6B10BD986162BDFC30E03D4CF71BBD707DC8BDEA1EBF3DA87F8E3CAC38B93DE6FDE23D4036F63DB875C9BD5CAAE33DC8A177BDC889313DE475FD3D68010BBD70A05D3D42FFEE3D0AAFB73D903DFDBC4E2D9ABDE819D63D002191BA884D323D260C893DE4E526BD58A761BD5860CFBD081578BD4874C43DEAA694BDC8FD293DF6DEACBD6AC89C3D045E50BD9C1AA33DF8FCF93CECB8EBBD36C991BD8CDE92BD4077F63C4ABFD33D286BB93D58FD00BDAE6ED33D8E06ABBDD471113D244128BDF4352DBDF237813D0095F43B608ECABD189CE33C8CD75FBD7C39553DEEC2CF3D3831933C447C3BBD3A0687BD1CB17A3DEC3873BD5286BC3D309F673C385EC6BD86AD98BD7840CBBDA8EDF6BD2897A13C70099ABC76D2C93DF201D6BD00AAF63BC0A5823BD0050C3D301A61BD426F8CBD8677BFBD367AF33D4690BF3D50541D3CCEAAB53D1C1B4CBDCC85A3BD1ED687BDF07CEFBCC0EFAE3CB058063DCC492CBD60A77A3D90193BBD6A87E4BD00F2D0BC4C8AA93D88574FBD9ABACF3DCE6CE0BD14DCC0BD5C7C2C3D00FB55BA4294D23DB006FDBD68109B3DDC48DBBD40A4CD3C3C95BBBDF6D7F83D6E53C2BD0AA4893D7E77D9BD407D55BC2E88D9BDBA3BACBDD003C93C7097F1BCAC891BBDDE938FBD76149F3D64ABDDBDAA7AAABD2E61FF3DB855693DAA60FABDD0A291BCCCFF323D14D6B33DC61CCB3D00F2983D70D46ABC484C373D10BAC4BD14D69FBDAEF2ABBDB8C3C13C80C5DF3BB8ECAFBC20FCE13D00A8AD3A5809D0BCA07EE5BC24B91D3DC632D13D440936BDACEEA93D448A74BDAEF8E6BD4AFCEB3DD8B0BF3D0098D5BCAC28DBBD402F8BBC1A9CFD3D788FA8BDD07273BD724CABBDE804E4BCE206FFBDA8D3E93CA63190BD00B4103DFE8C89BD1C31793DC4E03ABD3816F2BDF8A7473D4E858B3D08E3E1BD4A40EABD72F6BABD24DC4CBD301097BC4A59D4BD78E3DFBD7C5BD4BDC0F7CB3D689BFEBC90583EBCB0FF973C3E6BCDBD2A13A53D24B13EBDF4AAA8BD60543BBDAE41A3BD9870843CAA6BBDBDBEC0FB3DC074263BB21DC53D048B9D3DF822243DE0CA60BC80E6BBBA74892ABD5074BE3D263DBC3DE89F913DE86A743DF09D3B3C00445DBDF4E0213DF8B0AABD2816E53C9053923D143394BD8A5AA43D109A8BBD9665ECBD027386BDB6DFF1BD8802E8BD989DAC3D000052B97680E93DE032C43B80EC38BD8EB5A2BDDE71D63D48E7723D8CE1173D3E3EE5BD12A7DF3D68F222BD30154A3CBCAE0DBD28FF573D6AE0CABDDCFCC6BD90BC913D48CA9E3DF441BEBD4AD39FBD585689BC6C09A9BD3AA78EBDB8A6B93C540569BDEA6EC83D30BB6B3DCA15983D40124EBC24D27EBDA6BCA4BD686F94BD066A853D9282933DCC9833BD0CCB7B3D7C60913DC88DF63DB24FC53DD09363BCA015A6BDC0CAA8BBF4898C3D5C2B49BD8235D83D003827B9E454563DC87FB1BD5448BBBD083132BDECE69EBD0027193D3CAEB33DD4B29D3D1620CD3DB07E9E3D4C6E6D3DAC7349BDF0B96B3D9003A6BC3EA3F43DB263DA3D00E849B95406203DB40CD9BD90256BBD087C313D1628863D18267F3D70A8AB3D7EF6CF3DF4A31F3D5800A73C06ABD8BDF6FCDBBD4C1A8F3D026CA83D0088A7BCD47E55BD68E0BE3CF092033DB227D1BD7A57EE3D98F787BDB06D0DBC388E883C98ADE0BC020CF1BD922D9F3D467DB43DF06E4B3D302782BDB01938BC802196BD2A68A83DA42E79BD1CAFA4BDF46E283DB4CC4CBD12E8F2BD2AD3BF3D82F8EC3D585D2DBDFC565ABDFC40903D14F7C0BD0C1E103D80F7FC3A8833E53D02BBF8BD78E8FDBC605DFC3CD0E5C83D04B88E3D1AC7BF3DA6F0C0BD0A66CFBDF0EE55BDE03BCBBC0473833DD844CFBD64B473BD505AC3BDBA148FBDB07096BC00D8BEB8E007DEBB6099BEBB94D91B3D260892BDD883A33DD88750BD788441BD306A9B3DA4DB57BD2EEF923DB224DC3DB496A4BD9C8CD2BD70E4C7BCE4E5DD3D50D24D3C7857E1BDD0D2853C04BDE43DC0B1B1BBB475813DF296E9BDFC5DBC3D24621EBDB0D543BC00650B3D22BA85BD0C8F62BDB8BDE7BCE0ADE5BD8E00A6BDEC55FFBDAE1583BDF090323D605B9D3C9012B43CA002CC3B4200A7BD004091B8C6B4B83D80625DBBCCD8AEBD0CE1D3BD182604BDFC39F5BD088A8D3D6E209DBDECDF74BD20C287BC18B41F3D945254BDB210E9BD34A4693D1C0D69BD60A64B3C40C946BDFC034E3D00629D3B201C673C6C3106BDB809BB3DA4B69D3D545C4A3D540210BD60FFCBBCBC58733DA0E0C63C3A88F9BDAA8AF2BDC8291A3DE095EA3CCE8284BDACA4233D927BBE3D2C9947BDC4674CBD5A4C92BDFEA3A0BD40F2F9BB8030BA3D26B695BD10F5D33CCCA4263D9080EE3D981DCEBC786BD4BDFA7498BDEA8CCD3DBC47EFBD8ED4F2BDEA028CBDE87FA5BDACEBB93D08D5EABDE059C1BD34EB463D188B9ABC24CC203DE8ECC8BCB23DEABDB0CD513C80671B3D9288D23DB051D73C8CED7D3D885929BDC28BB83D28F7453D0823DFBC2C46953DB8AC473D1ADB9ABD00829ABBF03D253DC0EAEC3C6845D4BDC46B0ABD40787A3B74893C3D80F3853BD01BC03D5CDF373D006E643B50D589BDB042503D96E8A0BD1CBCB63D1C4FF33D00B9D2BAE8FDB0BDA0B5263CF0905E3DD845E9BDD292B1BDC05FE53D50D811BD3053663CD8A9D4BD7853513DC23ED43D0408683D484ABFBD04E8133DEAC68C3DF0B7DB3D7CE3093D4825673DA8EB53BD8226F0BDD02053BCC0FD26BBDE20BB3D88FF383DEC0935BDB0B9D4BDC08B6EBD088DDA3C1840C1BDCA06C2BDC828543D340EFCBDA02096BB9ACB8FBD187D533DC62A893DD282AEBD50298F3CE85262BD0093AEBC00DC843D08175DBD4023093B00D288BA282EED3D40E8473B8416ADBDD274863DA0FEAA3BD87D2B3D1C5396BD0845CE3C827787BD1030C33C686F6CBD704660BD50DCCB3CA08513BD80C894BA58C082BC28066ABDC0E5B8BD20F893BBFE0FF43DE4DC1FBD301BE7BD00D96D3D4694B93DAA6EC9BDC0EFC0BC3444083D8C194ABDE8FC8DBC6C3168BD448BBCBD82B7F4BDCEC184BDF8B10A3DBE3F94BD98B296BD9C6EC2BD2812383D40E30D3D58A9E0BDE68EE83D607D3FBCC8B893BCF842AEBCEE6C8DBD182D54BD0AD4ABBD966F953D6C5BCB3D506FCA3D88E2593D22D8D23D94F778BD4E07FEBD4009C13B1CDBB9BD783B5FBDCC407D3D20E6DEBBA0A219BD14CA8E3DC29CB6BD646333BDE8E7BEBCE8544CBD0051AE3B262C8E3D04DAC33D5C45C3BDEC561D3D18B6553D68D97F3D1CA370BD04948E3D4895693D3032D83C34AAF13D74EFD03D54AC053D084BECBDA86019BDE463273D80B6543C0046E23A06C8863D40522F3C0AD4A23DE451493D007E773C083A9E3D809C9DBB64D06D3DE0F9F8BC607D26BDCA46AEBD2836ADBD4681E03DC0A715BBF4FB7ABD1415D03D701F7F3CB0AB473D8630CD3D203286BDB471B0BDF4A3963D1051913D309F7FBD609DC0BC88ADC0BCECD6EABDB8DFC2BDDC949BBDF036F53C3E0683BDBE8EB63D285D843D9AADB1BDB45AB23D80D3FFBCFE83E93D205E4A3D409B9C3CA0B75BBD806D663C30C73EBC8C4674BDE06A883CD03135BCA803B9BD707E36BDA0EBE33C485F153DDC7D3BBDEA21D3BD0AAFCEBD80B53EBDEE38D53D8A1CC9BDC063FABBF8A5D73D40FFE93B84806FBDB0FBF9BC9CC175BDE0EDCA3D30C09E3D94B8513D643A93BD86EABB3D74CBC33DD438393D2241C1BDEA46FDBD44EAB2BDD87A623D583CE2BCE682E13DC00BC9BBBC23233DB41DF6BD7C9DD33D04AF263D6070A43C66DCD73D80927DBCB8A497BDF818A0BD020A8ABD3C36653DE6FDF3BD90B9CDBD3096D43D529EFABD16A3A03D5C6D3BBD24EBDF3D2A22D6BD286712BD7871F53CE0AD8B3C6CBA69BD423AC73DBCFC29BDA6819B3D425CFDBD749256BDA276AFBD4C0DDF3D7A08ED3DE00B973D605D4ABD0009CD3BD6EC82BD103147BCD0F3D83CD8D53EBDD2C5C2BD183DEC3CFC5E30BD4E1BB4BD520DFD3D1E10A5BDB842B83D00A74FBDA8B6B3BC2CCB5B3D24BF9CBDB6ABDC3DD8AE40BDF89BE3BCD44E2CBD00FCF43AC03DA4BD68EDF8BD6EA4C5BDFAF8FFBDE00AFBBB00CFC23B7CD553BDDC793BBD8C9D9B3D042934BDE0800CBC5274883D68C7DFBC3678ACBD78AC9FBDB8B429BD5CF973BD48A5663D60F4003C368A9A3DC2D5F33D1896F53D580FAE3CC05D69BDA870D1BDC8D713BD0A90C6BD68584BBDA0CDC43B8C0CE8BD4848CDBDD89FE23D30D66C3CE64BAFBDA824333D500862BD461CAB3D6083A9BB1406BFBDF424C3BD3E2DFF3D9297DBBD6429973DAEBEECBD80C4BDBC00D3DD3DA0C5CD3CDE14ECBD78E877BD401F80BB7243A4BD3C6FC13D0A6CDFBD6C702F3D44A2383D1E90F5BD18B4CE3DB240933D8612863D24B1B8BD905575BDFC6E393D9059AEBC406F8CBBB0F30E3DD8B2303D3EC9C53D88A8D53DDEA1F2BDA4FD293DF84A083DF035553C581981BD6660CABD0A359ABD28DBF63DE8B4CDBCE2189BBD0087AD3C0271CA3D98AC0EBDEAE68C3D007B10BC3C497F3DC673803DAEA8DD3D400440BB8035273D28E4C93DA891F13D680EE63C56A5A73DFA42923D02ECC6BD4648CBBD7C5D7B3DE0E1893D44BFCD3DB01FA43C6EB093BD98B3BA3C8C046F3D4A00D0BDF053A3BD5400713D687B893D2A35D2BDA82D46BDACDB083D029AC73D18FD433DB0B8E93C5C43BB3DF820B83DB03D80BDD2D6CA3D5AD3E3BDEC06F43D2E5EAABD40421E3D8CAE0DBDCC918BBD10F690BDFCD52A3D90AF113CFEC495BDD055F43CAA3882BD800FD6BD0054693D402181BDAED4D63D2A42CD3D44D262BD56A6823DC0471FBCE0849A3D4048973D16C6D5BD4CBB36BDC02FCE3CFCCDE63D1AB9983D4099593D486FB9BCD86B9D3CA298E23D005B3B3C3861573DF679B33DE846083DA0AB943C6E6D89BD827A8D3DE8B7C83CF2F7F5BD5C48B53D4613D1BDE838BC3D0079DA3CCC67523DA0240EBC84FDAA3DC0DBB6BDC020A83BEE3789BDCA0485BD40EF72BB0097A23D0E97B8BD08FBE7BCC06BB83B204EEBBC2839A73C4A9FAFBDD29BEBBDA48C563D4288AA3D446751BDF87CC33C20A0B03DB284A1BDF0AECEBC4089273CC803303D84D4B4BD305FC23D502180BCD85083BD20C2B1BB60CD4E3D307470BD9ABDA1BD8CB32ABDA6DDFD3D98F856BD6877AD3D40970DBD0AC896BD282AC5BD0E83A0BD008F09BC20CA703D0802C13DB48FF53D7057BA3CBA27F03D7A309CBD500FC83D9ADECABDB4BBA8BD681AB63CCC9CE33DF66F82BDC0A10ABCB014CD3CB6EBC6BD4672A73DA057B0BB1044CA3CD4EF5EBDD8BF183D8C9366BDE8BAB03CA270C73D701BE8BC503B8CBC5C4FC6BDAC1358BDAC75ADBD54AB723D50EE84BD3CB7AA3D90D2F63CA8B2F83D18B20BBDA0AB86BD943F453DACE2733DF020633CCCFA433D3C1A2CBDA8F1B73DB27C8A3D00606B3AF6C5ACBDE0A7AEBD80278ABABC7A22BDF42911BDDEBED7BD7AAE803DD886F33D925DFF3DE49E8F3D529FDBBDB64DA4BD3672ADBD163BCF3DAC29D83DE0B4783D443F453D28E9D7BDB02B53BDFED4DB3D960DE4BD3862F7BCC45DC4BDE00792BC705A7E3DA010743C6806A3BDC0E42CBCEA06A43DB08B2C3CB05DE43C00532C3C9C24A8BD70D9FE3D847418BD6856A4BDDCEFE63D30F805BD682565BD3CC6B03D6A0EEBBD642A053DF6F1D03DA44CF1BD5089BABC40142CBD0C1B53BDBC95963D1816A8BCAEADC9BDB8FF50BDD05512BD0004683CE42FBF3DFEF4C43D06E7F0BD0644D1BDBC984A3DE859BC3D0CA5A73D4CB03ABD70BB5FBCB0504BBC888D573D004D3A3A4C14D1BD28A6B33CBC8E48BD8EB9CABD0029C7BBD05473BD20CAD2BB909F643CE0F494BD38A38E3C28B53FBD001CF03A56DB9CBD3690A8BD1856B2BDBC3C4B3D20214C3C88E6BEBD1CF70EBD503CE2BC749010BD18BBA63D84B3ECBDE6D0F33DE068C1BC4E93CE3D205348BD90D1BB3D04B1BC3D289196BCB0A8EABD7EB5F23DC074803C60AE2B3DCE0FA83DA0B967BDE26AD33D00CB74BB80878FBC648D823D9896E6BD90AB153D6875AC3C58F56E3D7E0BDE3DF48B273D0AD7AA3D48CACABCE81CEB3C7CF8A6BDF0A2163DD4536C3D50BE493C088DA9BDA8B4CDBD1EDCFCBD1668813D64D7813DE2DBD2BD5CC689BDD8EC63BD80B12D3DACCAEF3DA2B6ABBD6077A83B486887BD703194BC00EB7D3BC23CD0BDD675893DC4DD2D3DECDF003D1668F2BDF4B6FDBD58E5C3BD58EE223DC293863DC8EE5CBD28FF5E3DD279DFBD30843D3C9C1AADBDA2BFF6BDECEF4E3DB0F2DBBDC428C63D1294B3BDE025773CB4D9123D00449C3D80CAB63C46DB9CBD1EF0E2BDB0C2793DD0271C3C88AB343DC08252BC92FECA3D96F38E3DD898443D7C76E63D00F486B998BD313DB69EFDBD76E8A4BD000E64BCA623AEBDC8314E3DC00BE73D18767EBD6087F83B60A37FBCEC3A403DB002C0BDE03081BCF678D03DB8C8E6BC3495313DF4C202BD04E16DBDD0A36BBD48A92C3DC0E19E3C30DA6A3C5000BABD646E0EBD18D5AABC208D973D9696BBBD38EEDDBCA6FFD93D08745C3D1A6DB03D2294CABD3C3876BD30899CBC9C669DBD98AD7D3D6A19B33DF4C7F6BD70BE2B3D74227B3D68AC5BBD460BDABD601304BD545AC93D8830DFBDD07C79BC7443583D3C6D4E3DC65BC9BDC459AA3D7E59FFBD904F763C68C1773D9AFDE93D46B8B7BD1E8BF43D402B6CBB40D3D7BD02D1EE3DECDCEF3D5A62DC3D68074B3D2A1C8F3D12388FBD80CC5EBCBC33753D2A48DF3D708518BD18527CBDD0C7BABD3A89D8BD1617A4BD64BA13BD300BE4BDEC965B3DCC2149BDF48A823D1A08DB3DAE3CC43D309AAE3DE841E63CD0D1543C0053163D08E2883D840E33BD2AB0B23DA8A7E7BDF8A4BCBC9458413DB098E4BD1602E3BD4826B53CE8362F3DC0F1A93CFEC4863DB0D538BC80E40E3B7053653DA06797BDF406C1BD1A1B8EBD603E03BCC829AABDB284DA3D16C3D53DE0201FBDFAFAA33D5047903CC04540BD4E9E833D98CD163DA8BDE4BD90BAE53D44591F3D0E7CD4BD6E66FF3D6474AE3D145A3C3DB695C83D1861793D5E51C3BD52E9C6BD807D5FBCEEFEC7BD38BBA93CF6F6C33D1EAAC93D30C50EBC24A4B4BDFAD4D83D6CA3BF3D48B26DBD509BE73D409CD03B441E89BDB473193D6C759DBD4824FA3C4819B83C901FB9BD248CB73D142A953D88FBD3BD0C421A3D005EE5BAA8978D3C92BBC0BD2041ADBCBC14DD3D0E87AF3DA8EE23BD66E5AEBD00456B3BF8C86E3D9AF8DB3D1497063D0AE89A3DC800C5BCB4C851BD148BC8BD100DEA3D5648E7BD2C85503D2476913D08DBDD3D40C37FBCC8E5F8BD8C9DBD3D845DF8BDE0B5E63C32DEBDBDE898C93C204AC9BB3CBA85BDC6C6F63D6A3AF23D18CD5B3D18B36FBDB8ADADBCD4814D3D5C44D73D16A9DD3DD4586E3DA2A9ED3DE0527E3C349D49BD806378BBFC05FDBDBC42373DE04EBB3D180135BD0849B13C68B946BD42F9E13DD65BB3BD7CCD493DD04837BDC819413D6E958BBDB06B633CB0CA03BC40F93CBB926AEEBD40EC7C3D80141E3D80897ABD3638D73DFE9EAEBDB0C78F3CA4CF8E3D5E5CC0BD3AB9FA3DF8D8483D38EBA7BC5228D7BDA611EF3D4CC3963DAC34EE3D225DE8BD48CC91BC6CAA71BDE00EB73BE039173C88F5AABD00B335BCE02417BC421A9CBD128B83BD4A6FBE3D803B28BC2E26F5BDB8CFD2BD721BFABD6CFD08BD085B34BDB4B0273DF0DEF3BC3A0BE2BD708F113DF0ADFC3C6C7C6FBD9C85C7BD086A74BD048BE0BDA0C0C73BF089313C24D07F3D04C5B7BD80FDA43D2C4A803DC0CD12BCD0BE873C00C98D3A5063E03D0275AEBDCC2E623D5C58473D20B374BCBC42BF3DCC4B343D501080BC408C493B82EFD3BD9629F9BD9033E8BC90BA3B3C20BE373D18D9833C846C513D88BF6CBD8044DF3A1846E0BDEEE59BBD9015453C9C54013D74954FBD1CCEA3BDE834083D801CA03B8EBADABD804CDDBA5AEDD0BDB6A0ACBD7054B4BD3CA6B93D8083913AD041EDBC7278D2BD5A4BD33DE06C813B28E4C63DEE3AE53D7A10FE3D94A541BD22AD93BDE01BD23DD0184BBC9698E3BD526A99BD2A159BBDC445F8BDBAC3B1BDC6F5923DFC77D23D6AF3FB3D40B5D93BD075063DC600863D60A3F63B3878DCBD0024C7BB7E4FB03DBC3EC4BDA081CE3D16ADCABD4CFAC4BD6099C93D90AF31BD30BE343D5C39743D682486BC00EA9BBAAC77323D10F0B13D5446BEBDBCB5813D369BDC3D122DECBD689DE83CC08609BDE090C5BD800E953AC02ABEBBF0E1FBBC289157BD2E3D813DA88EBEBCE88FE43D54120E3DD00146BDEA5D93BDF201923D80F0F43CC864223D409679BB3CA00ABDA089923BC80CFA3CC05F143D407B4FBB88938DBDB43EE9BD8038FFBBF876E43D3077CDBD0CDB353D6810BBBC8086E03C981794BCA48253BDBE64D23D78D26E3D60B9E23DC011B7BBF89F36BD6079813CC04E31BB386F7D3DF0C952BC5C10E2BD7691D4BD8821CD3D709BAB3D2E4CA4BD802B943D1E68CE3D44611A3D8017CBBC8CA12F3DD0BE3FBC68E1A03C18BFF5BDDA68B8BD7AFFCA3DD885AB3C6E0AF73D18D6C7BD94EABDBDC027C4BBDE63F9BDF84D343DB42EB33D3C9A0CBD306C9BBCA45332BD18C7F33D20D4C93D4EA9C33D9C25CBBDCC1ACABDC02E8C3CF8FBAFBDF846E0BCF07B353D006443BB6894B3BDDC7FCCBDC0EDBB3C224FD3BD7ECEB23D92D08BBDD20DE83D2E7A8A3D481D73BDD8A9DCBCE0EF19BCAE03E73D80AA1ABD207057BD4EA994BD588697BC001C763C3652E63D00F04EBC0424CA3DD49290BDF6F6DD3DC270CCBDB2C0F83D5213D1BD2C076ABDB499E0BDDCDC8A3DBE268C3DDC40803D2018FF3D14D72F3D544287BD3AFEE73D1CBEB03DC00F83BC908C383D0013B13C2ECEF83D18FE9EBD4A79E0BDC85537BDFCFCF5BD16AFCA3D642278BD1C3E73BDA096973D806559BC2890E03C58D9D9BC90370C3C4CD0BEBDEC139E3D5C7F8E3D2C65683DD28EC53DAEF2F43D3E5DBA3D0E18A23D00613A3C74DD1E3D4471913D72A993BDE448C83DA0D597BC8C9715BDC07D87BD30B9923D4A26FFBDCCBFDA3D8897FF3C9E16D7BD7CCEBC3DC033363D740603BDF276EC3D74FE953D8EFD863DEE7DC9BD449198BDB47AE2BDD4F05CBDFE1E963D6A61CEBD5EE7BEBD605CF0BD044CA5BD1478673D9C03E53D9E569C3D5015843D9C5550BDC083D4BCE46F78BDD0550BBD90FCD9BD92B7E6BD7254FABDB2F6FE3D70A8A0BCB0A9F2BCE0A791BD181ABBBDE0CDA53B245AB13D6E61A0BD1680E43D807C573BDEDD823D60BDC73B34A438BD1CCAF1BD58DEB9BC8891D8BCEC96D23DDA86D9BDA6BFBA3DD8AB483D58A0AC3C34909C3DAA04E93D643689BD2C1DD6BDF077C8BD88C0963DF6CCBC3D1C48B4BDE030B1BB42E785BD7A798FBDACE8C7BD20C5A43BE4A6F7BD8CDEE13D8CF1EA3D06DEAFBD7AFAE0BD24A61FBD50DAFE3D6617ACBDECA6393DF44A2F3D9674BCBD8C4A62BD64EB32BDECEB51BD306AD43D0C99513D505C2D3DA01E543D8CC9123D309D923D0CD3B8BD82EF813DD0CAB1BDCC1416BDD08F143C283B8A3C126EEABD9820F8BD58BE23BD408518BB80B803BDD072CA3C904C423CFCD62C3DE0972E3D808299BC2C67593DB47AFB3DECAED33DD0F793BCF0158EBD7E0892BD3EF986BD50A4E8BC30D8C8BCF610BEBDD880823D0815923C8E68E73D5087DB3CE85BAF3D88D8D93D607F983C24AD983DD45C79BD2036113D3870E23D62F1D63DE07D453C38919B3D98D556BD203126BC98A7BBBC10F21EBC6E73A4BD22BBDF3D201DFF3D3881F43D9673E7BD0C4307BD0ECBCB3DF0F39B3DF89AE9BC4C7E973DA82AC93D18795DBDEA21FE3DE09087BDD2C4D03D546CFB3DE002183DA046E03BC601C23DC079FFBB3034FABCDC87803D7A96D3BDBA1ECF3DB0B1D3BC1058513C6860923D301DFDBDC0D0D63C6EE5E13D7046DABCAC0E893D4CADD2BDA03A46BC54C8FD3DA057023D3058B4BD58EA89BC227BEB3DAA12EBBD50179C3D0050BD3860CA763CE0D2863B607DA2BB8C2C7F3D48619B3C8C13BABDF0F234BD989113BD947C243D7E07DEBD58B905BD18B03B3D86C0AA3D8C3FBDBD9093083C6EF4B43DD0AFB33DE014533C3ABDC03DDEEFCD3DD218A0BDDEFFD9BD883BE8BD948BD83DD00642BCC231CA3DFCC22CBD809FCB3D54E20CBD4454373D04498B3D48C2F63CE29989BDB0CB283DA0EC46BC5084A1BDD2DE953D46FBDEBD2044EFBDD0C9243DE873853C1081FD3D80C1F73B2092F03B14736ABD30BCD83C44F478BD2C4DB7BDFA2FD73D98BBBEBD3A29FFBDC002AB3DE00D5EBD08EC183D7E46F93D7833FFBCFA46933D208C0E3D36F5C53D30862CBC0028FE3AD8C5AEBCA0D5FE3D681DA4BDA44784BD002279BD2AA8E8BDE0424CBD1CA0C33D8407DF3DB87F85BD021ED9BD486398BC08019E3D42CBB1BD94CC4C3DC62DC9BD387782BCF02F9D3DD4DD40BDDC2B22BDDAE8BBBD60DD673CA0DC67BC60B0D0BC4413803D7AEFF03D7843A13D64A8C3BD982BAC3D42CC9DBDF872BF3D8893C93D12BBCEBD60D15E3C5071683D1AA3A7BDFA97E03D84BB98BD847C92BDC62ADE3DAA9E953D6014FABC2467D7BDDCDE93BD5009ADBC0074AB3BF81F003D069BC4BDFEF9A33D8CB432BD0046873DA201E53D96B1E43D086892BC5C5FBB3D90EB183DD07C403CB611CE3DA017833B9C2BA73D20E92EBCA235F03DE28BF83D9459C93DA8B6AD3D5295CC3D48C37B3D0486BB3DEAF8ECBD8084FF3DD03330BC0890A8BDF8EE843CE457F03DE8CB6E3D60A5583CB82540BD181FD73CDA13BABD4EC6B2BDD2C3CA3D3068F2BCEE03F93D803458BCC0ADC43CC004793C2693B83D30E39A3D5EB1EE3D70C18D3C38FDAFBC8802793D9074E13C9A0EF83DC0EED43CE45F7FBD044A883DB4A90C3D3026473CC02CC63C04F8AC3D0008263ACA76E93D6AA1E3BD6C301FBD98EC84BD6CF0793DB4E0A43DC650D83D7C374DBD20FB3E3D60CDF6BC483DF2BC7EBD843D323DD93DA641B6BD1079F1BCE67A9EBD402129BCB485883D2C421EBDB8E9E23D084A17BD6279FBBD4873C9BD2012ABBDB009793D18A064BDB8D11E3DF8C59DBD228CF63D403BABBCB85DD73CC0C4AD3C8A0CF83D30D2683D60234ABC201CEA3B08A656BD5814B7BCD8F088BDBEDEE23DF04DB9BD28C3F63D8234E5BD0CE6DDBDE48A2A3DC00930BDDA90A43DDAC99FBD5054BF3D2274993D50D67CBC58100F3DB8A544BDE0F2D33C3691E3BD5C716D3D508AF1BD96A6CFBDB0EE983CD02C523D9E27EE3D647628BD6875B2BD6058B2BDE0F77EBCB847803D00E9C4BA145285BD6416393D381D4F3D10CB243C5814D03D84CF00BD425CC7BDD82AFEBD1628963DB83C913C70965F3CC871F13D5212A1BD620DE13DB4D6AD3D2CF321BD8CE440BD5095C2BD56C08B3D4A19E53D7CBDC2BD8040983CDACAF53D30AFB5BC9EA9893D40D15DBB6672A6BDC022D53D080FB8BC1CBE91BD188C8DBD109C4B3D30ECE53D4A9FBB3D983704BD14A2503D806D62BD04B9983D8832A9BC8C105B3D26FFE13DB8E8D73DF8D699BD0CA2EC3D7CD04BBD2A0FBA3DB48F69BD0C60F03DA02EBD3CE229CBBD7874C13DC8B26B3D7EF5B1BD08A5783D10DAEA3CB036BC3D30263D3D8C47ACBD780FAEBC04F8A43D4C1E2FBDA02884BB38679FBC98BDD1BC34DB7E3D4020C43D0874BFBD681DE6BD6837B43C42F5CCBD048F2ABD082F66BD6898A13D6C578BBD400B293B4E17903DA48ACEBDB65CA63D0E9B8DBD788038BD289B933C1E15EFBD98145EBDA45D6E3D0A41FD3D16B9CABD3886EC3D0684A43D40E55C3BFCB6523DC814FA3D04BA8DBD229C8FBDCC4379BD46D4F43DFC65B73DB8FECF3DB09C41BDF4ECD8BD660ACB3D0298D63DF61AF5BDE83F6E3D80E9E1BCA07A8F3D34DAA63D88E1DF3DC84621BDF87A803C38B130BD2498A4BD9657FCBDC0E9793D0AFCFFBD7219E43D843E6A3D00D164BD6EB1E3BDA41D45BD189BA6BCE0E0D1BB2A4681BD0062E83C34954B3DBA548BBD6076B4BC10E3ED3D606044BDA0E5F53CDC5D62BDDC3615BD445876BD007DC6BAF8B027BD002059B96CD2F13D702FC7BCA29CF63DE08A97BBFEBAE73D108C713C5AE7F0BD40F93EBD88F2E13CA8F3773D9EE5EB3DD0A02C3C605E443CB0395DBC4083ACBDAECDAC3DCC1C723D626BDABD082B883DA8AABDBDBA60DDBD24C5203D9291833DA294DEBD2A6FC83D703A07BCB8E0B93D388950BDFC5C9D3D88D6C9BDA0B4393CC05CF3BBB4B9CEBD0CF0813DA2A4F23D9A4CECBD5AC39F3D0029D2BA60ECD03CA08B2BBCF2A9AA3D9A94EBBD00F29FBB5E85B53D0098B2BD5C3AA33D78622D3D18A8F2BD8C9B613D405E883CDC55DF3D8C82A9BDE058683CD643E5BD0C3391BD189EA23DC8F90E3DDA64A7BD82AEBC3D362AC13DF07A6B3CB48F8EBD1048B03C74BED1BDB07F6C3CE073713C40A5963D88585A3DB050C1BD74460F3D2A70AC3D803CD13AC037A63D10D8C23D8412C1BDF089C1BD78199BBC7C32293D98AA4C3D98F6EFBDB85EFF3DF03EABBC0003D5BB4AA0D2BDCAC8F13D9E24CFBD3640FEBDD0BF5E3D1CC79E3DC8CED3BD48F8C6BCFA16B63D167EB43DC840523D888196BD02C9CF3D604AA53B82F4923D9680EA3D908EB9BC10460ABD9275BFBD60B9963D8E2BDB3DA020FDBD38470ABD90FCA53D46E8B63D00DF66BA703AA7BCDCCCDEBDC227E5BD3606F0BDC89C963D04ECFFBDE45077BD6283E43D80F3473B0A3AC4BD145622BD34260E3D1A0CA3BD70D2713CE68EA6BDE042F83B5E34A0BD44D4A13DF20DC8BD88AED53D5C1635BD38EA0C3D5A7DD63D407C043B4083A43C7293B93DCC23E1BD8876343D660BAB3D00312FBD2EE1D1BD50CDBEBCB844603DDA07FCBD54EDC33D68711E3D6E87AF3D443CD33D1874F4BD680AAFBD64477A3D78C91CBD8053533CC0A7AE3B566AD03D5C7715BD905A3A3D74E0DFBD68B39CBCE4E8743D2089CBBC32BFCF3D18DFCDBD5C2DD53D703D893DE02D023DF221B13D5E4994BD2028963DC4787E3DAA5B85BD003D313C74A6CE3D02B3803DA0584EBDE2C48B3DC06B42BDC8F38E3D1607C43D9C3FA83DA8515BBD940361BDBC27633D7AC2AFBD303A42BD92EEA8BDC03D523BE04227BD9C0D80BD5E24843D5C923E3D3E15933D8C3B78BD5C75713D94636A3DFC3EA23DCA7ED8BDA8B4A73CB8F8A43D4A12E4BD78FB683D3C661F3D3072713C98E218BDA8AA85BD942AC43D80AE8DBC7EBFB2BDD8CAAABC30A8513DE23EB3BDD45E773D4EE5F23DC0E346BD9A8E873D3667B83DB8D350BD58D7CBBC9C21AD3D80C8FCBBA49AC33D6A25EF3D9C4B293DB0E477BC964D893D18FCE5BC8CD5C6BD481196BDF4B71BBD68B99E3D20D4013CC8E472BDAA9CEBBDA84A21BDB0C189BC80AA51BBB093F6BDF08D58BC02CFAE3D100886BCD02E5ABDF86BDA3CDC18FEBD6201C83D7A4AA7BD84E3AABDE4480EBD1620993D60B1413DB6E3B83DE8DA763D047F02BD70641A3C5269EA3D1079DEBD045EBFBD0E7BF73D7428213DA6D7B7BDF2E4BDBD48698FBDE8C71F3D24B9C0BD4AF8D93D3C6C0B3DFC3564BD34DD043DC0FFAFBB3C5319BDA4CD7F3DE45C023DACF00BBD4C5DFF3D745D38BD0EC2D33D442B3C3D80FB56BD4C708F3D007CC5BA903BA23C04317F3D2C26B43DE00A08BCC4F26F3D4C3C55BDF87C443D3014EEBDF0F164BC4C1BE8BD000CFA3AA066933C1C3C5C3D82F6DABD7851C9BC16458EBD668BCFBDAEB4E2BDE48AF73DF8B89F3D00B0EBB83CE30CBD7C5793BDBCE674BD8606CF3D403AD53B7A09BB3D8286D63DE0F95B3DCC5775BDB46A553D96FFFDBD58D472BDA0C5F33D60B918BCF61095BD9865E4BD38862D3D38ACD53CEA53DB3D60B93F3D002035382845373D1C5CE63D90CC32BD181CC3BDEC9EC63DA0FEC63C2CCD813D4042643D1CC044BD1CB892BD783963BDAC7D183D10F6B13CC8CB2D3D40F80A3DC84AC53CFC539C3D909AEDBDE06CF13C20CDAFBB3014123DC0B835BB2CEA38BD34A50EBDC031A03B20E6F2BBA8EB21BD4475923DE40615BD6E81F5BD58A458BD223FF0BD0CB530BD1C3059BD825BECBDC06AE33B6217A1BD60DF07BD9ADFBEBD78B49D3CB0DB913C047499BD601D6EBCE662A6BDB4C93D3DA0A989BC504136BDA6DA9E3DA470A8BD001369BBB041073DA4EA87BD4091CB3D003AA73AC89B3EBD50A24A3D5009963C10ED223C106C343DB8D639BD1CE61DBD0E60FF3D70E1233DB0D7F6BC3C9CEDBD32DDC53DD037C1BD10636CBD3AD98CBD84D29BBD9A47F3BD349FE9BD4000FFBD00B74CBAD81F6A3D48BB403D24B0E93D80DAB73D10BA02BC70D1443D5E17E9BD2403E7BD54E3DA3D44FB2FBD1855D9BCA66F96BDE8E808BDF64BC43DE0C05F3C3818EABC9C4B733DB22EBA3D0047B33AE2B8D73D5042F13DEACE9C3D962AAE3D7845FBBD808EEABB146C773D56A1A53D94112B3D04CF99BD40B66ABC6C586A3D3A54B43DEA8F9BBD6202DB3DF0A134BD409CA73D703996BD02F2A8BD3CCC31BDB833EB3C6631F73DBEFBA03D7ED2C7BDBC08B6BDF04DE93D40C3BD3B6E7396BD943C923D246A6F3D0050AF3BC0BB003B8025E1BB0A7491BD3869F13D28DAAA3C1A74983D5E91E3BDE623FFBD9C3F44BDA6B5F6BD4817A1BC2C7FC8BD20F667BD2804BBBCE0AABFBB9405383DB08A67BC70298E3DD079DDBD284CF3BCFA97F1BD3E40983DE0D2F0BCD02AEC3D787C17BDE85BD63D067E94BD8A0CD83D3EBDCA3D144CD83DA69D96BD965EE0BD10032EBDEC61953DD012E83D2647BE3D7C0364BD4018053C1C866B3D9E3D90BD00F89D3BACA827BD802B59BBA4ED99BD8C6BCABDA450AB3D4069303C58AE48BD78B7AFBDF4175DBD76B9C83DA800FABDAEB6D63D90C17BBCD25C9BBD944C873DCEF4ED3DDCB42FBDA0C8BEBB701AB73D580DDEBD9A85E33D60AD913B4827BA3CF0F26BBC68ABC53DD08347BD4A7EFBBD78103E3D188424BD48FF25BDA0E7E83BDA4EF1BDA0B689BB18E521BD42C4AFBD7679DE3D40B0A1BD004A9ABDE0279D3C1EA1C03D00C8C239DAF2C63D8C9C383DC44AE83DBE3EB63D88D7A5BDC697EE3D60ACF03C8041F53BA089D0BDFCDD34BD10B465BD745338BDAC8E81BD009C763B6A59C6BDFA19E73D46ADA93DCC51443D8242E23D305B943C84F4E13D705F713DF650AE3D547C60BD4C90A03DF0104EBC90136B3D28D2C23C14C7073DAC09783DF0CCC0BC78BF36BD787F24BD9EE7B73D4C2DF23DF826A43C4C2E3DBD78C7AABD2A7AD1BDAAF489BD48BEC2BD8484A93D22DEDCBD00DECE3B186749BD6CD4CCBD286C8D3D1AD7F9BD60BBAD3C90D416BC44ED873D44009B3D2092FB3C4C2425BD4C95A43D94D2D7BDB0E1A9BC402BFABC6409A9BD9643D73D407181BC5269B5BDFAFE9EBDD0CA6ABD94E80EBD1C26453D387DAEBD2A32D13DD87428BDEC00F83DE0C101BC50F34CBCB8908C3C3C1B57BD5E7FE6BD40F4DD3CC08DD13D6C98E2BDD0D3E5BD380269BDA61CF43D08459F3C2840FE3CF07A183C380745BD40215ABCC8DA9D3DC01674BC066AE1BD809BCE3D524E9DBD48FE4F3DBC1844BD605807BDE4C339BDC82B3ABDC0AC9CBB2883EB3C4CBE163D702F6ABCAC3A0EBD4077EE3B602AD3BD0C4DEABDA23A813D8C70803D805496BBB82CED3D0E4E983DE011ADBB449BFB3D74E109BD600567BCA0DD803D645FB1BD3C92203DF02379BCB8A5FDBDE804783DD0E2633CC85561BDBE52B8BDA2B8EFBD40ABD43C5664DD3DCC7CE23DF0AB263DE86021BD30FCCA3D625EC63D10BBE7BCF086A63C6684B2BDA03668BC627FC7BD0ACCED3DA62BA2BD280892BC4072BF3B009F223CE01FA7BC3250C4BD80FD18BBF4F50DBD4ED6E9BD7860E53D7887323D4605FB3D5CB4A63D0446E93D6097D0BD3E5FB53D401717BC4828CBBC04D6043DF85530BDD6D5F3BDF2BBBFBDA010C9BCE01AEF3DB8433EBD9C81353D6876A4BD4C127C3DF02BA83D643A51BD0CCC9ABD08AD6A3DB8C5E93CD0BB6A3CC8F0C33CB4CE073D12198EBDC0785A3B20A8CE3C0056BB3C3865C23D9C41F83D9C1FB33DA4AC603DB613C2BD4810863D06B2F23DCC7A0F3D68BA17BD00E785BB206DD8BC608B8D3B4048D83CB0D41CBDC09A70BC1C531D3DB670B0BDF0123B3D80C819BBD6ECDC3D5060393D4A89ABBD18ABE83CD4857E3D00A8563D985A69BD6056B83D9C2AB7BD40E1A63CA45460BDAC7ED33DB0B63BBCA6C682BD98829CBC844669BDE820D2BD30031EBC5420CB3D8623973D242BBE3DEC00EF3D2015FBBB380AD5BCA02C953B44D875BD5EA5EC3D363CA23D30A9363D922EC8BD381E48BD9E4CA3BD6CBACC3D3CE1BDBDD04D4C3C9C5D093D84AF8FBDF8D0A6BC76ABEA3DE0E9C23B542D233D14A568BD3205973D941DF4BDE833C73D98B891BD92D9A6BDF4B69B3D9083603C80AC4D3D88AADF3CDA4BE1BD2065E3BCCAB4D2BD94F043BD54EA693DE20BEFBD3CAF54BD2C660ABD2831513D7425FFBDAE8A87BDB8EC4F3D2EAF85BD9C8ACDBD46E9FCBD421E81BD822DECBD0CFC8A3D4436BABD202CBE3C58FDADBD6E08A5BD8864C7BCF02DFCBCF86316BDB0894B3D003919BCE074F73BE2CCD7BD9020CD3CE4DCD63DC873FC3C467898BDFE9A82BD2499363D00D777BCC890223DDC4F0DBD0000F7B78090343B58FD8B3CCEED9BBD064A9DBDC4BC2BBDDC97FF3D2C97B23D3EE3943D8886D8BC4421263DE06A5CBD50B6FABD2E2DDE3DC09ED53BE85B713DF8E49A3CAEA8A3BD006F963D60EF3FBCC06540BBBC